#pragma once
//Generated weights for CIFAR-10
//Array shape: (3, 3, 256, 256)
const ap_uint<32> weights_conv6_1[18432] = {0x0, 0x1402, 0x600000, 0x40000, 0x40800, 0x82440000, 0x2100000, 0xC0030100, 0x0, 0x1102040, 0x4400000, 0x10010000, 0x40000, 0x400005, 0x0, 0xC0100100, 0x220820, 0x10402, 0x1000, 0x200, 0x1000800, 0x42410404, 0x20048800, 0x20020000, 0x60000, 0x40100, 0x10000004, 0x400080, 0x2010002, 0x80440020, 0x200000, 0x50100080, 0x4009C, 0x1000, 0x10400000, 0xA01, 0x22000800, 0x80040120, 0x0, 0x820100, 0x10810, 0x2010442, 0x601000, 0x0, 0x3000000, 0x80010004, 0x800, 0x30200, 0x10010, 0x110400, 0x10000000, 0x44000, 0xB000000, 0x2000021, 0x400001, 0x10020400, 0xA, 0x2400, 0x98400000, 0x0, 0x1000000, 0x420020, 0x44100000, 0x10190000, 0x82040821, 0x200400, 0x14200000, 0x804200, 0x1810000, 0x2010005, 0x4028000, 0x80020000, 0x0, 0x0, 0x0, 0x0, 0x0, 0x0, 0x0, 0x0, 0x0, 0x0, 0x0, 0x0, 0x0, 0x0, 0x0, 0x0, 0x0, 0x0, 0x0, 0x0, 0x0, 0x0, 0x0, 0x0, 0x0, 0x0, 0x0, 0x0, 0x0, 0x0, 0x0, 0x0, 0x0, 0x0, 0x0, 0x0, 0x0, 0x0, 0x0, 0x0, 0x0, 0x0, 0x0, 0x0, 0x0, 0x0, 0x0, 0x0, 0x0, 0x0, 0x0, 0x0, 0x0, 0x0, 0x0, 0x0, 0x0, 0x0, 0x0, 0x0, 0x0, 0x0, 0x0, 0x0, 0x0, 0x0, 0x0, 0x0, 0x0, 0x0, 0x0, 0x0, 0x0, 0x0, 0x0, 0x0, 0x0, 0x0, 0x0, 0x0, 0x0, 0x0, 0x0, 0x0, 0x0, 0x0, 0x0, 0x0, 0x0, 0x0, 0x0, 0x0, 0x0, 0x0, 0x0, 0x0, 0x0, 0x0, 0x0, 0x0, 0x0, 0x0, 0x0, 0x0, 0x0, 0x0, 0x0, 0x0, 0x0, 0x0, 0x0, 0x0, 0x0, 0x0, 0x0, 0x0, 0x0, 0x0, 0x0, 0x0, 0x0, 0x0, 0x0, 0x0, 0x0, 0x0, 0x0, 0x0, 0x0, 0x0, 0x0, 0x0, 0x0, 0x0, 0x0, 0x0, 0x0, 0x0, 0x0, 0x0, 0x0, 0x0, 0x0, 0x0, 0x40210140, 0x80000280, 0xC00, 0x1000400, 0x1080002, 0x4000041, 0x8CA0000, 0x40400, 0x20010000, 0x100000, 0x10100000, 0x200002, 0x0, 0x2041, 0x8820000, 0x400, 0x40018108, 0x100200, 0x18000000, 0x800010, 0x9000000, 0x41, 0x820000, 0x20000, 0x4000000A, 0x80000000, 0x100000, 0x200000, 0x2000000, 0x104020, 0x4420000, 0x20100000, 0x2004, 0x1, 0x18000080, 0x80000000, 0x4000000, 0x300000, 0x20000001, 0x400, 0x300, 0x20, 0x8000080, 0xA00000, 0x0, 0x4000, 0x0, 0x40000400, 0x9, 0x8000000, 0x20100800, 0x80008040, 0x2000000, 0x4104020, 0x4000001, 0x20000400, 0x8002, 0x200000, 0x304000, 0xB0010000, 0x4000800, 0x100001, 0x0, 0x100280, 0x10206, 0x100100, 0x900, 0x80010040, 0x4000000, 0x40A0000, 0x1000001, 0x600100A0, 0x2000, 0x8032000, 0x8000040, 0x10054800, 0x4000000, 0x214020, 0x0, 0x80004864, 0x2000A0, 0x4080280, 0x4000040, 0x411400, 0x8040800, 0x2000841, 0x80000200, 0x840400, 0x801, 0x82, 0x4204000, 0x1010000, 0x2040000, 0x80400040, 0x1000200, 0x8000000, 0x40000, 0x8290000, 0x20000800, 0x80009000, 0x28000880, 0x80004800, 0x0, 0x800020, 0x42000, 0xA1A0040, 0x400040, 0x8100D000, 0x4040000, 0x4800, 0x8140000, 0x140100, 0x40C20, 0x6080040, 0x300840, 0x81001001, 0x8000002, 0x82024000, 0x100001, 0x104, 0x40039, 0x1A2000, 0x800, 0xD800, 0x8040000, 0x80044000, 0x281, 0x20110, 0x220, 0x2A1001, 0x840, 0xC040, 0x4090000, 0x4020000, 0xC100001, 0x10070000, 0x28, 0x2080003, 0x4840, 0x81001040, 0x4040100, 0x20000, 0x8100081, 0x80820104, 0x0, 0x0, 0x0, 0x0, 0x0, 0x0, 0x0, 0x0, 0x0, 0x0, 0x0, 0x0, 0x0, 0x0, 0x0, 0x0, 0x0, 0x0, 0x0, 0x0, 0x0, 0x0, 0x0, 0x0, 0x0, 0x0, 0x0, 0x0, 0x0, 0x0, 0x0, 0x0, 0x0, 0x0, 0x0, 0x0, 0x0, 0x0, 0x0, 0x0, 0x0, 0x0, 0x0, 0x0, 0x0, 0x0, 0x0, 0x0, 0x0, 0x0, 0x0, 0x0, 0x0, 0x0, 0x0, 0x0, 0x0, 0x0, 0x0, 0x0, 0x0, 0x0, 0x0, 0x0, 0x0, 0x0, 0x0, 0x0, 0x0, 0x0, 0x0, 0x0, 0x800000C0, 0x59000440, 0x20401500, 0x20000040, 0x88000800, 0x40080020, 0xC800000, 0x40080410, 0x81000080, 0x420, 0x80001488, 0x400240, 0x2000000, 0x4210000, 0x40, 0x430, 0x81000039, 0x140, 0xA8000400, 0x1210200, 0x2000000, 0x410000, 0x4000000, 0x120, 0xC2000049, 0x0, 0x20000000, 0x20, 0x8400000, 0x40090000, 0xC808000, 0x100020, 0x40041, 0x40004000, 0x180, 0x10, 0x0, 0x10040, 0x40000, 0x0, 0x40183, 0x220, 0x80001004, 0x410200, 0x80000, 0x400100, 0x8000, 0x10004080, 0x40400000, 0x2000, 0x1008, 0x20000000, 0x3000000, 0x100104, 0x40000000, 0x100000, 0x41000140, 0x4000, 0x20000004, 0x400000, 0x400080, 0x1, 0x800000, 0x24000, 0x60000040, 0x0, 0x20001004, 0xC00000, 0x400000, 0x10C00, 0x0, 0x20000, 0x10000, 0x0, 0x8000000, 0x20000002, 0x10800, 0x4040040, 0x102000, 0x80020000, 0x0, 0x20000, 0x100000, 0x0, 0x80000800, 0x4040000, 0x100002, 0x100010, 0x40010810, 0x180400, 0x0, 0x0, 0x0, 0x805, 0x802040, 0x98810100, 0x10, 0x4080000, 0x4200000, 0x404003, 0x2C10800, 0x2000C00, 0x0, 0x20180, 0x10008, 0x8010000, 0x4400400, 0x0, 0x20010800, 0x2042000, 0x100002, 0x40030000, 0x10821, 0x2114000, 0x4000040, 0x0, 0x2, 0x2002000, 0x2000, 0x80010000, 0x800040, 0x80000, 0x400, 0x40040, 0x20010000, 0x20000, 0x1100000, 0x100, 0x800810, 0x80000, 0x24400400, 0x41, 0x10802, 0x2000801, 0x40000, 0x20000, 0x40040010, 0x4280400, 0x4200020, 0x4040, 0x2000002, 0x2000101, 0x100000, 0x30100, 0x108100, 0x1D2201, 0xC000044, 0x110C010, 0x2, 0x4204000, 0x8000290, 0x80801024, 0x300, 0x41C0050, 0x4000020, 0x1004010, 0x4010002, 0x44A00, 0x240, 0x80040024, 0x10000510, 0x4140002, 0x4004040, 0x1004003, 0x2, 0x46440, 0x11008C0, 0x80445020, 0x8000, 0x40200, 0x4100040, 0x80000000, 0x10100, 0x4000000, 0x2204, 0x80C20804, 0x2508000, 0x100011, 0x4000, 0x80008010, 0x4000000, 0x40060, 0x82004, 0x20800000, 0x20108100, 0x80260012, 0x10000000, 0x10204080, 0x4000000, 0xA40, 0x2200, 0x840800, 0x248000, 0x10180081, 0x100000, 0x90000000, 0x0, 0x44000, 0x8002000, 0xC0810040, 0x1408000, 0x1A1011, 0x10000000, 0x9000C001, 0x0, 0x400450, 0x2082, 0x800044, 0x1000804, 0x100011, 0x20, 0x80004001, 0x0, 0x2220, 0x2084, 0x60800004, 0x1040340, 0x10, 0x40, 0x1308000, 0x9000800, 0x80000410, 0x24802040, 0x10000840, 0x100441, 0x4004000, 0x4000040, 0x1008400, 0x400800, 0x4010, 0x84000000, 0x80A00, 0x601, 0x40000, 0x4004000, 0x200000, 0x100, 0x80002100, 0xB00000, 0x80000010, 0x10002200, 0x2000, 0x8004000, 0x10011, 0x29000000, 0x40000000, 0x500000, 0x80000040, 0x200, 0x0, 0x20, 0x1, 0x100, 0x0, 0x4080284, 0x10050, 0x200, 0x20100, 0x20000040, 0x0, 0x80040000, 0x4000, 0x4000204, 0xA0040010, 0x10840003, 0x14004240, 0x88000000, 0x10000, 0x8040000, 0x40002505, 0x40102000, 0x80000000, 0x2110, 0x204001, 0x4000, 0xA0, 0x80000000, 0x2100, 0x2004, 0x10040, 0x20000310, 0x4000111, 0xA0000000, 0x10000010, 0x80000002, 0x2010, 0x240, 0x8104000, 0x0, 0x0, 0x0, 0x0, 0x0, 0x0, 0x0, 0x0, 0x0, 0x0, 0x0, 0x0, 0x0, 0x0, 0x0, 0x0, 0x0, 0x0, 0x0, 0x0, 0x0, 0x0, 0x0, 0x0, 0x0, 0x0, 0x0, 0x0, 0x0, 0x0, 0x0, 0x0, 0x0, 0x0, 0x0, 0x0, 0x0, 0x0, 0x0, 0x0, 0x0, 0x0, 0x0, 0x0, 0x0, 0x0, 0x0, 0x0, 0x0, 0x0, 0x0, 0x0, 0x0, 0x0, 0x0, 0x0, 0x0, 0x0, 0x0, 0x0, 0x0, 0x0, 0x0, 0x0, 0x0, 0x0, 0x0, 0x0, 0x0, 0x0, 0x0, 0x0, 0x0, 0x0, 0x0, 0x0, 0x0, 0x0, 0x0, 0x0, 0x0, 0x0, 0x0, 0x0, 0x0, 0x0, 0x0, 0x0, 0x0, 0x0, 0x0, 0x0, 0x0, 0x0, 0x0, 0x0, 0x0, 0x0, 0x0, 0x0, 0x0, 0x0, 0x0, 0x0, 0x0, 0x0, 0x0, 0x0, 0x0, 0x0, 0x0, 0x0, 0x0, 0x0, 0x0, 0x0, 0x0, 0x0, 0x0, 0x0, 0x0, 0x0, 0x0, 0x0, 0x0, 0x0, 0x0, 0x0, 0x0, 0x0, 0x0, 0x0, 0x0, 0x0, 0x0, 0x0, 0x0, 0x0, 0x0, 0x0, 0x0, 0x0, 0x0, 0x0, 0x401, 0x80001010, 0x80200000, 0x18001, 0x0, 0x2000040, 0x1804, 0x80100, 0x100, 0x1001, 0x88000080, 0x800, 0x2, 0x2000000, 0x4000000, 0x100, 0x40800D00, 0x3000, 0x80100000, 0x81008200, 0x2, 0x2000100, 0x2040000, 0x40004, 0x1000001, 0x2001, 0x400, 0x0, 0x80000, 0x801, 0x2080080, 0x100, 0x42, 0x10001000, 0x300008, 0x8022, 0x2, 0xA00, 0x800080, 0x0, 0x802021, 0x2001, 0x80, 0x0, 0x810000, 0xC70, 0x800, 0x60000, 0x800111, 0x4003003, 0x4000000, 0x80000000, 0x490080, 0x2040050, 0x0, 0x100, 0x802080, 0x0, 0x300000, 0x92, 0x80000, 0x200, 0x2040080, 0x80000000, 0x409E0, 0x2002020, 0x20, 0x1000080, 0x4000000, 0x40000, 0x100004, 0x8000100, 0x0, 0x0, 0x0, 0x0, 0x0, 0x0, 0x0, 0x0, 0x0, 0x0, 0x0, 0x0, 0x0, 0x0, 0x0, 0x0, 0x0, 0x0, 0x0, 0x0, 0x0, 0x0, 0x0, 0x0, 0x0, 0x0, 0x0, 0x0, 0x0, 0x0, 0x0, 0x0, 0x0, 0x0, 0x0, 0x0, 0x0, 0x0, 0x0, 0x0, 0x0, 0x0, 0x0, 0x0, 0x0, 0x0, 0x0, 0x0, 0x0, 0x0, 0x0, 0x0, 0x0, 0x0, 0x0, 0x0, 0x0, 0x0, 0x0, 0x0, 0x0, 0x0, 0x0, 0x0, 0x0, 0x0, 0x0, 0x0, 0x0, 0x0, 0x0, 0x0, 0x1402080, 0x125001, 0x8204020, 0x0, 0x8400100, 0x40000001, 0x4080004, 0x80004, 0x11002004, 0x240041, 0x8204020, 0x0, 0x100, 0x80002010, 0x4001080, 0x0, 0x1802040, 0x44041, 0x200420, 0x200, 0x84000900, 0x2000500, 0xC4000080, 0x840, 0x400000, 0x4002, 0x10004000, 0x40400, 0x20C00000, 0x0, 0x80080004, 0x20204, 0x10402000, 0x64023, 0x4000020, 0x4000, 0x88C00002, 0x10000, 0x4000000, 0x10000, 0x402200, 0x1200C0, 0x10104400, 0x1, 0xD010100, 0x2100, 0x82100080, 0x280, 0x40402000, 0x114000, 0x9C004008, 0x4281, 0x81400100, 0x40000001, 0x80880080, 0x20120204, 0x2002000, 0x40202, 0xC000000, 0x0, 0x8000180, 0x801, 0x41001, 0x420004, 0x40400000, 0x44240, 0x10100000, 0x8200, 0x4400000, 0x10441, 0x40100000, 0x80004200, 0x10120, 0x4080, 0x104000, 0x20000400, 0x400002, 0x6400, 0xE00000, 0x20, 0x200464, 0x100000, 0x4100004, 0x0, 0x2800080, 0x4000, 0xA38A800, 0x40000120, 0x42144, 0x1000000, 0x8100084, 0x10010002, 0x8800002, 0x100000, 0x9A20000, 0x120, 0x100000, 0x204040, 0x0, 0x2, 0x1000000, 0x40002010, 0x22000004, 0x48A0, 0x20, 0x4000, 0x8004000, 0x100000, 0x800000, 0x4002400, 0x1080000, 0x0, 0x2144, 0x20, 0x20000008, 0x21010000, 0x800080, 0x40040404, 0x8200000, 0x80000000, 0x500108, 0x204092, 0x10000080, 0x0, 0x88880100, 0x40002550, 0x80001, 0x404000, 0x2008000, 0xC0000000, 0x94004000, 0x0, 0x82000100, 0x40002000, 0x20200040, 0x4600, 0x21000502, 0x20, 0xA0000004, 0x4000, 0x80, 0x450, 0x20001, 0x100005E0, 0x110000, 0x8280000, 0x4040, 0x30400000, 0x40980, 0x400024, 0x48408000, 0x10000810, 0x100414, 0x4201400, 0x4000040, 0x410000, 0x50800, 0x404000, 0x40400000, 0x80041810, 0x20200000, 0x4080070, 0x40, 0x1200400, 0x40000, 0x80404820, 0x2000A040, 0x5110, 0x20110100, 0x200020, 0x4000040, 0x640002, 0x180, 0x80000000, 0x40400000, 0x60810000, 0x2100C00, 0x8200000, 0x8001000, 0x20200000, 0x880, 0x4000000, 0x8000000, 0x20011010, 0x2000408, 0x41202010, 0xA0400040, 0x10008000, 0x10902, 0x2004, 0x20808000, 0x20014010, 0xA1048011, 0x49084330, 0x4000C00, 0x30204002, 0x0, 0x406040, 0x402040, 0xC8811000, 0x2008C18, 0x8210010, 0x4104840, 0x1004000, 0x180, 0x0, 0x80008040, 0x8804000, 0x22148402, 0x9210030, 0x8000000, 0x21104000, 0x22010080, 0x2060, 0x1340000, 0xC84010, 0x0, 0x0, 0x0, 0x0, 0x0, 0x0, 0x0, 0x0, 0x0, 0x0, 0x0, 0x0, 0x0, 0x0, 0x0, 0x0, 0x0, 0x0, 0x0, 0x0, 0x0, 0x0, 0x0, 0x0, 0x0, 0x0, 0x0, 0x0, 0x0, 0x0, 0x0, 0x0, 0x0, 0x0, 0x0, 0x0, 0x0, 0x0, 0x0, 0x0, 0x0, 0x0, 0x0, 0x0, 0x0, 0x0, 0x0, 0x0, 0x0, 0x0, 0x0, 0x0, 0x0, 0x0, 0x0, 0x0, 0x0, 0x0, 0x0, 0x0, 0x0, 0x0, 0x0, 0x0, 0x0, 0x0, 0x0, 0x0, 0x0, 0x0, 0x0, 0x0, 0x2012018, 0x4100020, 0x0, 0x1404000, 0x0, 0x4042C40, 0x9880000, 0x28000004, 0x2012010, 0x101, 0x10104000, 0x1005001, 0x2, 0x2040, 0x1400000, 0x60000, 0x20C0A808, 0x85004030, 0x40, 0xC45010, 0x2, 0x2204, 0x420040, 0x44000, 0x112800, 0x3042A0, 0x20, 0x0, 0x0, 0x42400, 0x80000004, 0x1000, 0x102804, 0x100001, 0x20, 0x80201200, 0x0, 0x2000, 0x40001005, 0x20000, 0x60000, 0x11001001, 0x8004020, 0x800220, 0x0, 0x52400, 0x80000000, 0x80064100, 0x24A002, 0x5203410, 0x800, 0x90200080, 0x4000000, 0x2001, 0x80008000, 0x8434000, 0x100004, 0x1081080, 0x8700008, 0x0, 0x0, 0x40010, 0x2001800, 0x80080200, 0x808800, 0x5080500, 0x8200020, 0x10001080, 0x4000000, 0x40040, 0x801800, 0x80844010, 0x250120, 0x2480, 0x84000000, 0x105000, 0x8000002, 0x100, 0x8020000, 0x8000000, 0x50100, 0x200400, 0x10100000, 0x111000, 0x8000000, 0x4100, 0x8000000, 0x8000020, 0x20850400, 0x4004080, 0x10000000, 0x111000, 0x8000000, 0x100, 0x42820000, 0x8000020, 0x2040000, 0x5002400, 0x14000000, 0x420, 0x0, 0x100, 0x1000040, 0x8000040, 0x0, 0x400, 0x80004040, 0x10000000, 0x40000, 0x140, 0x40, 0x4100, 0x22000000, 0x4001000, 0x24000000, 0x10001000, 0x800002, 0x80020200, 0x2022000, 0x830, 0x240020, 0x44203420, 0x4300000, 0x0, 0x8000000, 0x10000, 0x8002004, 0x8000100, 0xA0, 0x1001000, 0x0, 0x0, 0x80040000, 0x80120000, 0x8002000, 0x80080000, 0x22202000, 0x5004000, 0x10000040, 0x11000011, 0x80000, 0x104, 0x4E000000, 0x40B00, 0x0, 0x0, 0x0, 0x0, 0x0, 0x0, 0x0, 0x0, 0x0, 0x0, 0x0, 0x0, 0x0, 0x0, 0x0, 0x0, 0x0, 0x0, 0x0, 0x0, 0x0, 0x0, 0x0, 0x0, 0x0, 0x0, 0x0, 0x0, 0x0, 0x0, 0x0, 0x0, 0x0, 0x0, 0x0, 0x0, 0x0, 0x0, 0x0, 0x0, 0x0, 0x0, 0x0, 0x0, 0x0, 0x0, 0x0, 0x0, 0x0, 0x0, 0x0, 0x0, 0x0, 0x0, 0x0, 0x0, 0x0, 0x0, 0x0, 0x0, 0x0, 0x0, 0x0, 0x0, 0x0, 0x0, 0x0, 0x0, 0x0, 0x0, 0x0, 0x0, 0x0, 0x0, 0x0, 0x0, 0x0, 0x0, 0x0, 0x0, 0x0, 0x0, 0x0, 0x0, 0x0, 0x0, 0x0, 0x0, 0x0, 0x0, 0x0, 0x0, 0x0, 0x0, 0x0, 0x0, 0x0, 0x0, 0x0, 0x0, 0x0, 0x0, 0x0, 0x0, 0x0, 0x0, 0x0, 0x0, 0x0, 0x0, 0x0, 0x0, 0x0, 0x0, 0x0, 0x0, 0x0, 0x0, 0x0, 0x0, 0x0, 0x0, 0x0, 0x0, 0x0, 0x0, 0x0, 0x0, 0x0, 0x0, 0x0, 0x0, 0x0, 0x0, 0x0, 0x0, 0x0, 0x0, 0x0, 0x0, 0x0, 0x0, 0x0, 0x0, 0x40002040, 0x80004000, 0x104000, 0x10020, 0x8C00000, 0x44010000, 0x20000, 0x8000200, 0x40, 0x40080, 0x18100400, 0x800200, 0x0, 0x40000, 0x80000040, 0x400400, 0x40000410, 0x40300, 0x88000000, 0x800001, 0x2000000, 0x4000, 0x0, 0x10880, 0x800000, 0x40, 0x20104000, 0x220, 0x400000, 0x44152000, 0x4000001, 0x0, 0x122, 0x4100, 0x100004, 0x10000, 0x80, 0x4200000, 0x80080000, 0x40000600, 0x820320, 0x0, 0x104000, 0x10041, 0x0, 0x4042100, 0x84000000, 0x48000020, 0x42, 0x4140, 0x80104080, 0x210, 0x8A880080, 0x400C0010, 0x4000801, 0x40000400, 0x42000540, 0x100, 0x80104000, 0xA00, 0x88000000, 0x2101, 0x0, 0x20000420, 0x22903, 0x100, 0x8104000, 0x20A50001, 0x88000000, 0x40141, 0x80000041, 0x20010420, 0x10410, 0x0, 0x80001020, 0x20000000, 0x2000000, 0x4100000, 0x40A0000, 0x48000020, 0x432008, 0x80000000, 0x8001400, 0x200, 0x82800000, 0x180000, 0x40820000, 0x400, 0x80020200, 0x400, 0x8100400, 0x20000210, 0x800000, 0x100004, 0x40A60000, 0x28040480, 0x40110042, 0x90000000, 0x80100400, 0x10010000, 0x0, 0x4002000, 0x480000, 0x10020400, 0x100088, 0x0, 0x0, 0x200, 0x2000000, 0x100000, 0x48C0000, 0x0, 0x80000000, 0x0, 0x0, 0x10200, 0x0, 0x110, 0x40208040, 0x400, 0x3000B, 0x800001A0, 0x80004000, 0x450200, 0x3040000, 0x142000, 0x44022000, 0x30400600, 0x220, 0x1000020, 0xA0005004, 0x20040602, 0x8000000, 0x5, 0x40020000, 0x280, 0x9, 0xA000100, 0x80404004, 0x200600, 0x0, 0x40020014, 0x1000040, 0x60000000, 0x10402600, 0x40044211, 0x200000, 0x400001, 0x20000080, 0x2000400, 0x40004, 0x20800, 0x11000400, 0x40251, 0x204000, 0x50, 0x8000080, 0x210800, 0x80081004, 0x20400040, 0x30400400, 0x40293, 0x20, 0x40C1, 0x400180, 0x12800, 0x2002000, 0x405040, 0x1000000, 0x174091, 0x4000000, 0x1400400, 0x440900, 0x400100, 0x0, 0x80820804, 0x1000000, 0x2000042, 0x4120, 0x400, 0x80C00802, 0x40000000, 0x0, 0x60180004, 0x20000004, 0x120010, 0x201000, 0x40, 0x400000, 0x800, 0x8142000, 0x80000000, 0x200, 0x150012, 0x200000, 0x400200, 0x400800, 0x0, 0x2080001, 0x100040, 0x0, 0x41, 0x100120, 0x82, 0x0, 0x800, 0x21004, 0x40080A00, 0x0, 0x40052, 0x120, 0x1, 0x0, 0xB60, 0x2001002, 0x581200, 0x12802008, 0x2004031, 0x8000040, 0x548000, 0x1400100, 0x50, 0x800201, 0x8005280, 0x100402, 0x10210013, 0x4000, 0x400400, 0x80440000, 0x280040, 0x8004, 0x8005080, 0x10602500, 0x5000020, 0x1E8, 0x10300200, 0x0, 0x40000, 0x4001004, 0x60045800, 0x200100, 0x1200011, 0x0, 0x1040000, 0x80800, 0x402010, 0xC02205, 0xC05110, 0x80240000, 0x1000000, 0x4000, 0x0, 0x4010000, 0x410, 0x285, 0x8804004, 0x100440, 0x11104000, 0x28000008, 0x1200200, 0x80000000, 0x20, 0x1, 0x200C4204, 0x22602880, 0x4023, 0xC0, 0x10200400, 0x0, 0x80402840, 0x400205, 0x801014, 0x23040200, 0x1001002, 0x4048, 0x10000000, 0x100, 0x860, 0x80000080, 0x814000, 0x4026C8, 0x42004081, 0x4080, 0x1200000, 0x0, 0x410060, 0x400001, 0x844810, 0x22000020, 0x80200400, 0x100, 0x10500080, 0x2000000, 0x600244, 0x200, 0x401000, 0x400008, 0x200000, 0x0, 0x30504080, 0x0, 0xA00, 0x2000880, 0x40104, 0x2000000, 0x81000420, 0x10001000, 0x900000, 0x800000, 0x10800, 0x40000A00, 0x104000, 0x200800, 0x200000, 0x4, 0x100000, 0x80000, 0x400040, 0x0, 0x1000, 0x42000800, 0x41040000, 0x20, 0x300000, 0x0, 0x80000200, 0x40000800, 0x14090, 0x10420008, 0x90000080, 0x14001004, 0x0, 0x1000000, 0x2200200, 0x2000000, 0x100080, 0x80200420, 0x2144021, 0x14001140, 0x100000, 0x0, 0x2000A40, 0x2020846, 0x10080000, 0x2000800, 0x1043400, 0xD24, 0x1000, 0x21000000, 0x80000000, 0x2000800, 0x101014, 0x12220000, 0x20, 0x124, 0x20901000, 0x1000000, 0x80014A40, 0x2020005, 0x9C0094, 0xC0C02000, 0x44000, 0x100400, 0x200000, 0x80C00000, 0x4010000, 0x200005, 0x28100080, 0xC0200400, 0x80000020, 0x480, 0x0, 0xC00000, 0x4120000, 0x20005, 0x880, 0x40C20200, 0x80000000, 0x88000404, 0x808052, 0x800000, 0x40300000, 0x4020085, 0x8004080, 0x40210000, 0xC0040421, 0x80000008, 0x801070, 0xC00000, 0x0, 0x40001, 0x8000000, 0x80800000, 0x421, 0x400, 0x20800840, 0x800000, 0x4350000, 0x0, 0x48100000, 0x40A22090, 0x8086000, 0x80004404, 0x20010000, 0x800000, 0x200010, 0x4000000, 0x28004300, 0xA02010, 0x88000021, 0x100080, 0x20, 0x80000000, 0x400C2000, 0x1, 0x8050004, 0x202800, 0x4030, 0xA0104400, 0x800010, 0x81000000, 0x2C0020, 0x120000, 0x4000, 0xC20200, 0xD0000020, 0x100000, 0x800060, 0x1800000, 0x2C2010, 0x0, 0x40000, 0x4, 0x0, 0x8000040, 0x1000, 0x0, 0x80010000, 0x0, 0x0, 0x4, 0x110, 0x4, 0x1000000, 0x0, 0x200000, 0x80081000, 0x0, 0x100000, 0x110, 0x80, 0x4000, 0x0, 0x210000, 0x80000000, 0x0, 0x0, 0x0, 0x8000000, 0x0, 0x0, 0x410000, 0x0, 0x10000000, 0x0, 0x0, 0x0, 0x0, 0x0, 0x80210000, 0x0, 0x0, 0x0, 0x100, 0x20, 0x0, 0x0, 0x0, 0x8000000, 0x0, 0x8, 0x0, 0x804, 0x0, 0x0, 0x20, 0x0, 0x0, 0x0, 0x0, 0x800, 0x200000, 0x0, 0x10000, 0x0, 0x0, 0x10, 0x0, 0x4, 0x0, 0x100, 0x0, 0x2000000, 0x40000004, 0x0, 0x0, 0x0, 0x0, 0x0, 0x0, 0x0, 0x0, 0x0, 0x0, 0x0, 0x0, 0x0, 0x0, 0x0, 0x0, 0x0, 0x0, 0x0, 0x0, 0x0, 0x0, 0x0, 0x0, 0x0, 0x0, 0x0, 0x0, 0x0, 0x0, 0x0, 0x0, 0x0, 0x0, 0x0, 0x0, 0x0, 0x0, 0x0, 0x0, 0x0, 0x0, 0x0, 0x0, 0x0, 0x0, 0x0, 0x0, 0x0, 0x0, 0x0, 0x0, 0x0, 0x0, 0x0, 0x0, 0x0, 0x0, 0x0, 0x0, 0x0, 0x0, 0x0, 0x0, 0x0, 0x0, 0x0, 0x0, 0x0, 0x0, 0x0, 0x0, 0x0, 0x0, 0x0, 0x0, 0x0, 0x0, 0x0, 0x0, 0x0, 0x0, 0x0, 0x0, 0x0, 0x0, 0x0, 0x0, 0x0, 0x0, 0x0, 0x0, 0x0, 0x0, 0x0, 0x0, 0x0, 0x0, 0x0, 0x0, 0x0, 0x0, 0x0, 0x0, 0x0, 0x0, 0x0, 0x0, 0x0, 0x0, 0x0, 0x0, 0x0, 0x0, 0x0, 0x0, 0x0, 0x0, 0x0, 0x0, 0x0, 0x0, 0x0, 0x0, 0x0, 0x0, 0x0, 0x0, 0x0, 0x0, 0x0, 0x0, 0x0, 0x0, 0x0, 0x0, 0x0, 0x0, 0x0, 0x0, 0x0, 0x0, 0x0, 0x0, 0x11608030, 0x4400, 0x0, 0x21004000, 0x40000, 0x0, 0x22400201, 0x1100, 0x80208014, 0x81080001, 0x20000000, 0x20401011, 0x2000000, 0x80040001, 0x400040, 0x80810, 0x40014, 0x80000490, 0x400400, 0x20, 0x2000000, 0x40000, 0x200002, 0x140, 0x8130A004, 0x60, 0x4000C0, 0x1040000, 0x8800002, 0x0, 0x401000, 0x104, 0x81200000, 0x10080000, 0x20404004, 0x800050, 0x0, 0x20000, 0x84581240, 0x80000, 0x8044, 0x1010020, 0x10004020, 0x1010, 0x10000, 0x10400, 0x40, 0x80000, 0x81208150, 0x3081170, 0x8004000, 0x1900400, 0x2, 0x400200, 0x8C41800, 0x494844, 0x11100504, 0x0, 0x20000000, 0x1100C400, 0x4000000, 0x10200, 0x80000000, 0x8810C0, 0x140004, 0x1100, 0x140, 0x11004492, 0x5010000, 0x440440, 0x4200800, 0x400800E0, 0x0, 0x0, 0x0, 0x0, 0x0, 0x0, 0x0, 0x0, 0x0, 0x0, 0x0, 0x0, 0x0, 0x0, 0x0, 0x0, 0x0, 0x0, 0x0, 0x0, 0x0, 0x0, 0x0, 0x0, 0x0, 0x0, 0x0, 0x0, 0x0, 0x0, 0x0, 0x0, 0x0, 0x0, 0x0, 0x0, 0x0, 0x0, 0x0, 0x0, 0x0, 0x0, 0x0, 0x0, 0x0, 0x0, 0x0, 0x0, 0x0, 0x0, 0x0, 0x0, 0x0, 0x0, 0x0, 0x0, 0x0, 0x0, 0x0, 0x0, 0x0, 0x0, 0x0, 0x0, 0x0, 0x0, 0x0, 0x0, 0x0, 0x0, 0x0, 0x0, 0x0, 0xCB040400, 0x8200508, 0x41090, 0x400100, 0x42400004, 0x80040, 0x60000200, 0x2000000, 0x14002, 0x20000400, 0x201000, 0x100, 0x500001, 0x40, 0x1004, 0x400000, 0x2000, 0x8000000, 0x81009040, 0x10000, 0x4440460, 0x80000000, 0x20000004, 0x10000809, 0x9020000, 0x8000000, 0x400080, 0xA0000000, 0x40580101, 0x4280040, 0x10000240, 0x18, 0x0, 0x20100500, 0x200400, 0x80000002, 0x4000000, 0x4480000, 0x20100004, 0x10, 0x280400, 0x88004008, 0x8002, 0x0, 0x0, 0x402080, 0x1004, 0x80, 0x51020200, 0x20001000, 0x440880, 0x2800900, 0x40090500, 0x80000, 0x400000C0, 0x40000000, 0x8004200, 0x4001400, 0x100000, 0x0, 0x40600124, 0x0, 0x800, 0x2008, 0x800C0, 0x900, 0x10009802, 0xC810000, 0x80400, 0x88000000, 0xE0090200, 0x0, 0x0, 0x0, 0x0, 0x0, 0x0, 0x0, 0x0, 0x0, 0x0, 0x0, 0x0, 0x0, 0x0, 0x0, 0x0, 0x0, 0x0, 0x0, 0x0, 0x0, 0x0, 0x0, 0x0, 0x0, 0x0, 0x0, 0x0, 0x0, 0x0, 0x0, 0x0, 0x0, 0x0, 0x0, 0x0, 0x0, 0x0, 0x0, 0x0, 0x0, 0x0, 0x0, 0x0, 0x0, 0x0, 0x0, 0x0, 0x0, 0x0, 0x0, 0x0, 0x0, 0x0, 0x0, 0x0, 0x0, 0x0, 0x0, 0x0, 0x0, 0x0, 0x0, 0x0, 0x0, 0x0, 0x0, 0x0, 0x0, 0x0, 0x0, 0x0, 0x20000A02, 0x400A0081, 0x200440, 0x1001, 0x20400000, 0x80000400, 0xC0, 0x220, 0x20000000, 0x4080, 0x200000, 0x408001, 0x20000000, 0x204011, 0x80000000, 0x0, 0x20000480, 0x8022010, 0x204400, 0x508A00, 0x480000, 0x910, 0x800004, 0x50000080, 0x21002000, 0x15000, 0x40, 0x800040, 0x20000000, 0x40080A00, 0x0, 0x100000, 0x21000001, 0x44002000, 0x4000, 0x200401, 0x2000080, 0x80200210, 0x80001000, 0x40800000, 0x60C00000, 0x101020, 0x0, 0x200000, 0x2000000, 0x4000410, 0x80102000, 0x40000004, 0x60802001, 0x48056001, 0x40, 0x80000800, 0x400000, 0x40080100, 0x80040001, 0x104, 0x60C40001, 0xC0203, 0x40, 0x300000, 0x28000000, 0x910, 0x0, 0x800000, 0x40400200, 0x98080080, 0x40, 0x308040, 0x20000100, 0x810, 0x80100081, 0xC8050004, 0x80040021, 0x41000500, 0x600000, 0x20040000, 0x1810002, 0x410, 0xA08004, 0x80200, 0x400000, 0x2000102, 0x20400000, 0x0, 0xA0000000, 0x180000, 0x4208800, 0xA10, 0x80000081, 0x40000402, 0x20000080, 0x480, 0x20800000, 0xC0580400, 0x60200800, 0x80010, 0x90048000, 0x44000540, 0x0, 0x100400, 0x802, 0x2000000, 0x80801840, 0x80010, 0x10200000, 0x2010020, 0x20000000, 0x10000000, 0x2000000, 0x400, 0x40008002, 0x250, 0x90000001, 0x20020, 0x4000100, 0x400280, 0x0, 0x300000, 0x40200002, 0x200, 0x10200000, 0x40201420, 0x1A0, 0x20000050, 0x800002, 0x2600010, 0x20800000, 0x180010, 0x0, 0x1000020, 0x0, 0x0, 0x0, 0x2200000, 0x81000004, 0x4050, 0x80000081, 0x40000100, 0x2C200000, 0x41400, 0x0, 0x82500010, 0x4A00000, 0x24000, 0x82200005, 0x0, 0x20000000, 0xA0100000, 0x2040180, 0x400000, 0x4A300200, 0x800, 0x80110004, 0x4000002, 0x24000000, 0x90000400, 0x80010100, 0x80200, 0x48000200, 0x140, 0xA1040001, 0x0, 0xA4000000, 0x10019000, 0x810000, 0x404200, 0x28200202, 0x920, 0x20200, 0x10003, 0x20000000, 0x80000040, 0x100, 0x4000004, 0x81000000, 0x1000, 0x2000002, 0x202, 0x28, 0x1400040, 0x100, 0x80000, 0x40000000, 0x10000, 0x2, 0x102010, 0x804001A0, 0x402, 0x24000000, 0x2000000, 0x24000004, 0x80020, 0x40100, 0x4212, 0x20000000, 0x80000000, 0x0, 0x4000810, 0xC0800004, 0x400080, 0x0, 0x44202, 0xC000004, 0x600000, 0x9000000, 0x40000000, 0x500004, 0x100000, 0x200, 0x80002030, 0x34000500, 0xA0008800, 0x8000000, 0x80000, 0x0, 0x5800, 0x0, 0x8000000, 0x0, 0x400000, 0x0, 0x0, 0x0, 0x10000, 0x48, 0x10, 0x0, 0x400000, 0x0, 0x0, 0x0, 0x10000, 0x0, 0x0, 0x0, 0x0, 0x0, 0x0, 0x800000, 0x10000, 0x100440, 0x0, 0x100040, 0x0, 0x2000000, 0x0, 0x0, 0x0, 0x50, 0x200010, 0x4008, 0x8000, 0x0, 0x2000, 0x0, 0x28000000, 0x0, 0x0, 0x4000, 0x0, 0x0, 0x0, 0x0, 0x1000, 0x40, 0x0, 0x0, 0x0, 0x8000000, 0x80000, 0x0, 0x1000, 0x100040, 0x10, 0x4000, 0x200000, 0x0, 0x0, 0x0, 0x80000, 0x100040, 0x80, 0x4000, 0x8000, 0x0, 0x0, 0x2000, 0x1000, 0x0, 0x0, 0x0, 0x0, 0x0, 0x0, 0x0, 0x0, 0x0, 0x0, 0x0, 0x0, 0x0, 0x0, 0x0, 0x0, 0x0, 0x0, 0x0, 0x0, 0x0, 0x0, 0x0, 0x0, 0x0, 0x0, 0x0, 0x0, 0x0, 0x0, 0x0, 0x0, 0x0, 0x0, 0x0, 0x0, 0x0, 0x0, 0x0, 0x0, 0x0, 0x0, 0x0, 0x0, 0x0, 0x0, 0x0, 0x0, 0x0, 0x0, 0x0, 0x0, 0x0, 0x0, 0x0, 0x0, 0x0, 0x0, 0x0, 0x0, 0x0, 0x0, 0x0, 0x0, 0x0, 0x0, 0x0, 0x0, 0x0, 0x0, 0x0, 0x0, 0x0, 0x0, 0x0, 0x0, 0x0, 0x0, 0x0, 0x0, 0x0, 0x0, 0x0, 0x0, 0x0, 0x0, 0x0, 0x0, 0x0, 0x0, 0x0, 0x0, 0x0, 0x0, 0x0, 0x0, 0x0, 0x0, 0x0, 0x0, 0x0, 0x0, 0x0, 0x0, 0x0, 0x0, 0x0, 0x0, 0x0, 0x0, 0x0, 0x0, 0x0, 0x0, 0x0, 0x0, 0x0, 0x0, 0x0, 0x0, 0x0, 0x0, 0x0, 0x0, 0x0, 0x0, 0x0, 0x0, 0x0, 0x0, 0x0, 0x0, 0x0, 0x0, 0x0, 0x0, 0x0, 0x0, 0x0, 0x0, 0x0, 0x0, 0x0, 0x0, 0x0, 0x0, 0x0, 0x0, 0x0, 0x0, 0x800, 0x0, 0x0, 0x2000, 0x0, 0x104000, 0x0, 0x40, 0x2000000, 0x400000, 0x0, 0x20000, 0x8000000, 0x0, 0x0, 0x0, 0x200, 0x80000, 0x0, 0x0, 0x0, 0x0, 0x80, 0x2000000, 0x42000800, 0x0, 0x0, 0x0, 0x0, 0x0, 0x0, 0x0, 0x100800, 0x0, 0x0, 0x0, 0x0, 0x800, 0x0, 0x0, 0x100000, 0x0, 0x0, 0x1000, 0x20, 0x0, 0x0, 0x0, 0x20000000, 0x0, 0x0, 0x0, 0x200000, 0x0, 0x0, 0x2000000, 0x100000, 0x0, 0x0, 0x0, 0x0, 0x20000000, 0x0, 0x0, 0x100800, 0x0, 0x0, 0x0, 0x20, 0x0, 0x0, 0x300, 0x2200800, 0x90000100, 0x20000008, 0x8000001, 0x100, 0x20009020, 0x40000, 0x200, 0x220000, 0x10000010, 0x20038008, 0x9000080, 0x0, 0xC040, 0x100, 0x0, 0x80A0000, 0x50000030, 0x400208, 0x80001001, 0x4000000, 0x1004000, 0x2000002, 0x2400, 0x2100800, 0x10000080, 0xA20, 0x8101000, 0x1000, 0x4000, 0x80000000, 0x404, 0x4400001, 0x10040420, 0x20030221, 0x80000, 0x401800, 0x0, 0x40000, 0x2000000, 0x80001, 0x18040000, 0x8A00, 0x6000, 0x1800, 0x240800, 0x88090000, 0x80000, 0x2100000, 0x0, 0x2C, 0x4004000, 0x400000, 0x80001800, 0x20080100, 0x20400, 0x40, 0x400, 0x8869, 0x0, 0x80000000, 0x1820, 0xC0000, 0x4000200, 0x2408044, 0x8000000, 0x40040120, 0x0, 0x88100140, 0x100042, 0x80182, 0x104000, 0x81001000, 0x40000200, 0x2000402, 0x400, 0x4100000, 0x10100002, 0x80000, 0x80000040, 0x48000004, 0x34, 0xE0002482, 0x440, 0x9400004C, 0x30110001, 0x2000082, 0x2684000, 0xCA200000, 0x10000620, 0x22000080, 0x2400, 0x10400040, 0x30000040, 0x80000080, 0x82084001, 0x4000800, 0x40000010, 0x2000040, 0x0, 0x8000040, 0x0, 0x1000000, 0x82100000, 0x2820000, 0x40000000, 0xC0000400, 0x1002000, 0x420004C, 0x10100001, 0x180, 0x4040, 0x4A200040, 0x104010, 0x2000084, 0x44040, 0x4400000, 0x0, 0x82800000, 0xC0000100, 0x24000001, 0x50, 0x22002000, 0x4000, 0x80000004, 0x800, 0xA880180, 0x2104000, 0x900004, 0x104100, 0x20000000, 0x200020, 0x84200004, 0x900850, 0x82880180, 0x340, 0x8C800A00, 0x30, 0x400084, 0x100000, 0x10200000, 0x80, 0x0, 0x0, 0x100000, 0x309000C4, 0x400000, 0x2000, 0x2200000, 0x8201, 0x28080800, 0xA01, 0x80180000, 0x30400000, 0x1000000, 0x102001, 0x200000, 0x80400001, 0x8000180, 0x2200D40, 0xC0000, 0x20400040, 0x0, 0x0, 0x60, 0x140011, 0x880, 0x2000100, 0x800, 0x50000004, 0xA1000008, 0x46020, 0x200060, 0x0, 0x80000800, 0x40000000, 0x100080, 0x400000, 0x400000, 0x40, 0x200400, 0x8080, 0x80000000, 0x44200040, 0x40080080, 0x0, 0x0, 0x40240, 0x0, 0x841, 0x20040000, 0x20920, 0x80080080, 0x40820000, 0x10000004, 0x60000, 0x20, 0x40, 0x20000080, 0x2000000, 0x2948080, 0x24, 0x41000000, 0x40000, 0x20, 0x80000001, 0x80080, 0x2000800, 0x4, 0x80020000, 0x0, 0x0, 0x0, 0x0, 0x0, 0x0, 0x0, 0x0, 0x0, 0x0, 0x0, 0x0, 0x0, 0x0, 0x0, 0x0, 0x0, 0x0, 0x0, 0x0, 0x0, 0x0, 0x0, 0x0, 0x0, 0x0, 0x0, 0x0, 0x0, 0x0, 0x0, 0x0, 0x0, 0x0, 0x0, 0x0, 0x0, 0x0, 0x0, 0x0, 0x0, 0x0, 0x0, 0x0, 0x0, 0x0, 0x0, 0x0, 0x0, 0x0, 0x0, 0x0, 0x0, 0x0, 0x0, 0x0, 0x0, 0x0, 0x0, 0x0, 0x0, 0x0, 0x0, 0x0, 0x0, 0x0, 0x0, 0x0, 0x0, 0x0, 0x0, 0x0, 0x0, 0x0, 0x0, 0x0, 0x0, 0x0, 0x0, 0x0, 0x0, 0x0, 0x0, 0x0, 0x0, 0x0, 0x0, 0x0, 0x0, 0x0, 0x0, 0x0, 0x0, 0x0, 0x0, 0x0, 0x0, 0x0, 0x0, 0x0, 0x0, 0x0, 0x0, 0x0, 0x0, 0x0, 0x0, 0x0, 0x0, 0x0, 0x0, 0x0, 0x0, 0x0, 0x0, 0x0, 0x0, 0x0, 0x0, 0x0, 0x0, 0x0, 0x0, 0x0, 0x0, 0x0, 0x0, 0x0, 0x0, 0x0, 0x0, 0x0, 0x0, 0x0, 0x0, 0x0, 0x0, 0x0, 0x0, 0x0, 0x0, 0x0, 0x0, 0x0, 0x0, 0x0, 0x0, 0x0, 0x0, 0x0, 0x0, 0x0, 0x0, 0x0, 0x0, 0x0, 0x0, 0x0, 0x0, 0x0, 0x0, 0x0, 0x0, 0x0, 0x0, 0x0, 0x0, 0x0, 0x0, 0x0, 0x0, 0x0, 0x0, 0x0, 0x0, 0x0, 0x0, 0x0, 0x0, 0x0, 0x0, 0x0, 0x0, 0x0, 0x0, 0x0, 0x0, 0x0, 0x0, 0x0, 0x0, 0x0, 0x0, 0x0, 0x0, 0x0, 0x0, 0x0, 0x0, 0x0, 0x0, 0x0, 0x0, 0x0, 0x0, 0x0, 0x0, 0x0, 0x0, 0x0, 0x0, 0x0, 0x0, 0x0, 0x0, 0x0, 0x30000020, 0x80, 0x200400, 0xD00081, 0x800080, 0x2200340, 0x80040004, 0x801600, 0x50000000, 0x51004202, 0x1020, 0x500001, 0xC00080, 0x42000250, 0x2021804, 0x1480, 0x30400020, 0x10000000, 0x100000A0, 0x440000, 0x80400100, 0x40000210, 0x80880844, 0x1280, 0x10, 0x1000001, 0x14000008, 0x400001, 0x800000, 0x10241, 0x20000, 0x90800000, 0x11000080, 0x44000000, 0x0, 0x800081, 0x0, 0x200150, 0x6200A00, 0x400, 0x82400880, 0x0, 0x14000080, 0x4000A0, 0x8400080, 0x200200, 0x2080001, 0x800080, 0x94, 0x40020, 0x440, 0x500000, 0x20080000, 0x20000, 0x3000080, 0x880000, 0x40800021, 0x2040040, 0x200040, 0x400041, 0x10800, 0x2000000, 0x2000001, 0x10880C04, 0x2000800, 0x40082, 0x4000044, 0x80C00020, 0x1000000, 0x400800, 0x2000000, 0x10800000, 0x14, 0x10000502, 0xA0200080, 0x20008432, 0xA8840002, 0xC0400000, 0x200080, 0x10080050, 0x2, 0x100, 0x80, 0x30000002, 0xAA000080, 0x4400000, 0x8800000, 0x50, 0x11010002, 0x8000000, 0x20000420, 0x20148002, 0x28040000, 0x24, 0x6000000, 0x10350, 0x10, 0x2002042, 0x80, 0x800000, 0x7080800, 0x524000, 0x460001, 0x10, 0x0, 0x10001000, 0x800, 0x48810, 0x20000100, 0xA0025, 0xC040000, 0x0, 0x1, 0x22, 0x80000040, 0x0, 0x8000900, 0x4400300, 0x6400800, 0x0, 0x2008, 0x40000100, 0x8, 0xC58400, 0x1050000, 0x2420400, 0x8000000, 0x0, 0x1100014, 0x90000000, 0x200000, 0x1800002, 0x81000000, 0x140001, 0x8800000, 0x40040000, 0x41000000, 0x441010A0, 0x0, 0x1, 0x80000002, 0x6016A01, 0x180080, 0x24000, 0x40300400, 0x10, 0xA0004000, 0x10, 0x0, 0x200000, 0x80000A41, 0x400840, 0x310040, 0x42000000, 0x8000420, 0x20A01000, 0x0, 0x720200, 0x40000000, 0x400800, 0x1100C4, 0x40000000, 0xD00, 0x900010, 0x800000, 0x750200, 0x44000002, 0x5E0, 0x200000, 0x10, 0x10004008, 0x10100000, 0x0, 0x0, 0x80420000, 0x840, 0x2210640, 0x1010, 0x4000000, 0x100000, 0x0, 0x10000, 0x10A0041, 0x0, 0x2000384, 0xC0000410, 0x8004000, 0x901002, 0x1000000, 0x780020, 0x81820000, 0x100000, 0x440, 0x80000040, 0x1040, 0x90, 0x80000002, 0x200400, 0x80082040, 0x40900000, 0x200, 0x100, 0x10000000, 0x30, 0x0, 0x4440600, 0xA0800, 0x40000000, 0x12300284, 0x0, 0x80104000, 0x20801000, 0x0, 0x504040, 0x8820040, 0x4C0, 0x8010, 0x100, 0x400100, 0x4080, 0x0, 0x10004, 0x20001200, 0x10480040, 0x8000, 0x40, 0x400004, 0x20C04040, 0xA010000, 0x0, 0x400000, 0x10020010, 0x10800014, 0x40400, 0x4800, 0x10408A1, 0x0, 0x100000, 0x4200080, 0x520000, 0x400, 0x4200110, 0x400100, 0x40002, 0x80480100, 0x820, 0x81200, 0x40, 0x10000000, 0x88030140, 0x808, 0x0, 0x800, 0x204000, 0x2009200, 0x10C00200, 0x0, 0x10001, 0x4800, 0x400081, 0x480880, 0x100, 0x200000, 0x10000000, 0x31000142, 0x4000000, 0x8C604000, 0x211, 0x81000080, 0x40406D00, 0x4240000, 0xE0800200, 0x30000000, 0x220040, 0xC000000, 0x40080, 0x84400080, 0x441, 0x100200, 0xC0080244, 0x140502, 0x4010141, 0x84200020, 0x10400480, 0x880, 0x40014920, 0x202000, 0xE0000020, 0x40400010, 0x1, 0x8000000, 0xC00800, 0x20000000, 0x400A00, 0x40020000, 0x80000000, 0x40400010, 0x220211, 0x200400, 0x80009000, 0x8000800, 0x10805, 0x40000000, 0x800014, 0x0, 0x100400, 0x400, 0x440000, 0x0, 0xA05, 0x20000, 0x80010000, 0x400010, 0x80040200, 0x400000, 0x801, 0x800, 0x10000, 0x1000, 0x401000, 0x10, 0x81020000, 0x400000, 0x8000, 0x2, 0x0, 0x40000000, 0x400400, 0x0, 0x200440, 0x601000, 0x40000, 0x0, 0xB01, 0x2880000, 0x20000400, 0x30, 0x150400, 0x20600120, 0x404803, 0x2, 0x10004, 0x3088080, 0x40C00400, 0x12400002, 0x40040040, 0x20001020, 0x400081, 0x4000000, 0x2010000, 0x408A1000, 0x101C00, 0x400000, 0x242000, 0x10001000, 0xC00001, 0x21000000, 0x42010801, 0x28A8000, 0x0, 0x2404, 0x100, 0x98100020, 0x41, 0x1800080, 0x310250, 0x80400004, 0x481404, 0xA400, 0x4121, 0xB0100020, 0x20000401, 0x89880000, 0x510040, 0x4, 0x464, 0x10000414, 0x321, 0x84, 0x20900011, 0x800000, 0x310020, 0x42201004, 0x1020, 0x1002000, 0x10000000, 0x84004C0, 0x0, 0x840800, 0x2300000, 0x5, 0x11000, 0x400, 0x0, 0xA0000044, 0x0, 0x20080000, 0x2100800, 0x20041801, 0x200E0100, 0x10, 0x80000000, 0x4000004, 0x800200, 0x20800000, 0x40000040, 0x200003, 0x121130, 0x400000, 0x4000000, 0x8C, 0x400020, 0x410002, 0x0, 0x2000, 0x400140, 0x1000000, 0x80000000, 0x4000104, 0x10000, 0x0, 0x20000, 0x100000, 0x0, 0x20008200, 0x90000, 0x4, 0x10080, 0x800, 0x80000000, 0x20000002, 0x0, 0x60000008, 0xC0020010, 0x18100000, 0x82, 0x80000, 0x4010400, 0x80020080, 0x20041004, 0x20008188, 0x40000210, 0x0, 0x80, 0x880080, 0x0, 0x20800, 0x40000, 0x500200, 0x80002200, 0x80000400, 0xC00040, 0x8000100, 0x340000, 0x82060000, 0x140000, 0x4, 0x81, 0x10000000, 0x0, 0x80, 0x42000, 0x4, 0x40141100, 0x20500000, 0x0, 0x4000080, 0x220, 0x0, 0x40000, 0x80000, 0x20000000, 0x20802A04, 0x80002080, 0x80, 0x8001, 0x1000100, 0x202000, 0x80020800, 0x20001000, 0x1800004, 0x4000001, 0x420, 0x800000, 0x20800000, 0x80000, 0xA0000, 0x24, 0x41022804, 0x40600, 0x0, 0x80000040, 0x800080, 0xC2000, 0x20000, 0xA0, 0x1422A80, 0x81000002, 0x24, 0x808010, 0x8800100, 0x40000, 0x828A0040, 0x10000020, 0x0, 0x0, 0x0, 0x0, 0x0, 0x0, 0x0, 0x0, 0x0, 0x0, 0x0, 0x0, 0x0, 0x0, 0x0, 0x0, 0x0, 0x0, 0x0, 0x0, 0x0, 0x0, 0x0, 0x0, 0x0, 0x0, 0x0, 0x0, 0x0, 0x0, 0x0, 0x0, 0x0, 0x0, 0x0, 0x0, 0x0, 0x0, 0x0, 0x0, 0x0, 0x0, 0x0, 0x0, 0x0, 0x0, 0x0, 0x0, 0x0, 0x0, 0x0, 0x0, 0x0, 0x0, 0x0, 0x0, 0x0, 0x0, 0x0, 0x0, 0x0, 0x0, 0x0, 0x0, 0x0, 0x0, 0x0, 0x0, 0x0, 0x0, 0x0, 0x0, 0x50540000, 0x50200041, 0x4000400, 0x10000010, 0x20000000, 0x400000, 0x40300004, 0x10C80840, 0x100000, 0x1200422, 0x400, 0x10100000, 0x80, 0x40590000, 0xC0, 0x81900, 0x90200080, 0x40020, 0x20, 0x100280, 0x82800000, 0x10, 0x40002044, 0x100A1200, 0x90302C80, 0x244400, 0x0, 0x0, 0x800, 0x40100, 0x200040, 0x880060, 0x12100000, 0x2040020, 0x0, 0x40081, 0x0, 0x40002104, 0x300000, 0xA0040, 0x92540080, 0x50202000, 0x28000004, 0x100000, 0x0, 0x410104, 0x20500040, 0x10505000, 0x103000B0, 0x41200020, 0x8004408, 0x20000010, 0x20010000, 0xC0410560, 0x1000040, 0xC10240, 0x10000010, 0x1200030, 0x10000000, 0x30800000, 0x0, 0xC0000020, 0x200240, 0x181010, 0x92420880, 0x41204000, 0xC, 0x10400010, 0x20000000, 0x40580000, 0xA08200, 0x400840, 0x10910010, 0xC0000001, 0x408, 0x4040, 0x40002, 0x140004, 0x0, 0x440000, 0x110010, 0x98000100, 0x400, 0x80000800, 0x0, 0x160011, 0x820080, 0x1004, 0x0, 0x50002000, 0x420, 0x0, 0x0, 0x4180010, 0x0, 0x880, 0x10010000, 0xC0000001, 0x400, 0x0, 0x20000000, 0x40, 0x80, 0x10040000, 0x10000, 0xC1002000, 0x8000000, 0x0, 0x20000000, 0x500005, 0x202, 0x40800, 0x10000, 0x40001401, 0x20, 0x0, 0x4000000, 0x100105, 0x800, 0x40000, 0x0, 0x80040080, 0x1408, 0x0, 0x20080000, 0x0, 0x20000, 0x10000600, 0xA1, 0xC0000400, 0x8000008, 0x0, 0x800000, 0x110000, 0x80020000, 0x10001C00, 0x82000000, 0x1240482, 0x1000, 0x800, 0x20000000, 0x21, 0x841, 0x0, 0x800140, 0x140121, 0x80100008, 0x1010001, 0x4400000, 0x4002410, 0x4000080, 0x80004000, 0x40022000, 0x10244010, 0x0, 0x10001, 0xC00000, 0x4042000, 0x2005, 0x40010880, 0x40010142, 0x84044010, 0x8004848, 0x800000, 0x0, 0x0, 0x1, 0x60010120, 0x0, 0x10100001, 0xA0000000, 0x210, 0x400000, 0x4000111, 0x4000001, 0x8880200, 0x40800042, 0x280010, 0x20, 0x800, 0x0, 0x4000100, 0x5040080, 0x8000000, 0x40002040, 0x10200010, 0x88100440, 0x1050001, 0x0, 0x0, 0x85, 0x40110084, 0x202042, 0x80084011, 0x80004000, 0x30, 0x21400100, 0x4062101, 0x4082000, 0x28014004, 0x1, 0x80084010, 0x80100040, 0x0, 0x22010800, 0x40100, 0x1000, 0x80000000, 0x800203, 0x100010, 0x0, 0x20, 0x40002, 0x0, 0x4000040, 0x4880, 0x1500D02, 0x44000010, 0x1000C0, 0x43, 0x80400000, 0x40184400, 0xA8000000, 0x20000004, 0x1000118, 0x40050002, 0x8400008, 0x10000441, 0x2000180, 0x2200040, 0x2C000000, 0x884, 0x1000555, 0x480A0100, 0x8104100, 0x200403, 0x100, 0x2320040, 0x20002040, 0x20880080, 0x400D00, 0xA0040, 0x40, 0x402, 0x80400000, 0x180000, 0x24080800, 0x20040040, 0x300408, 0x40010002, 0x8004400, 0x400, 0x80000000, 0x10040, 0xC0000000, 0x41840, 0x1100000, 0x40000150, 0x20300000, 0x200402, 0x2000000, 0x40210000, 0xA0200004, 0x20000000, 0x20400A44, 0x0, 0x28000000, 0x4010, 0x81400100, 0x202000, 0x282002, 0x20400840, 0x10108044, 0x8000100, 0x8000000, 0x402, 0x40000, 0x40280000, 0x80002000, 0x20000040, 0x80800000, 0x40040100, 0xA0000104, 0x400, 0x2040000, 0x40380440, 0x20003000, 0x60000000, 0x53200008, 0x41120211, 0x4480, 0x408490, 0x20000000, 0x40014, 0x20001, 0x10001004, 0x50030009, 0x88080000, 0x10000400, 0x408040, 0x0, 0x40800, 0x1, 0x44000, 0x10410418, 0x88000000, 0x10000000, 0x208082, 0x40000, 0x40800, 0x400C1, 0x40000, 0x432100, 0x80020011, 0x800, 0x201890, 0x20000000, 0x2010, 0x20080001, 0x800000, 0x102980, 0x41000030, 0x4000, 0x20000050, 0x0, 0x84040024, 0xC0000040, 0xC40000, 0x12210, 0x10000081, 0x20000400, 0x8040, 0x0, 0x40000, 0x42, 0x10840000, 0xB0060000, 0x24002, 0x24000400, 0x840080, 0x20000002, 0x4000000, 0xA2080040, 0x18004000, 0xA1040005, 0x2000022, 0x4800, 0x20040001, 0x80000002, 0x2800, 0x22000000, 0x50840040, 0x1C62000, 0x82204080, 0x400, 0x1040, 0x2010000, 0x2400, 0x100000, 0x40440000, 0x0, 0x0, 0x0, 0x0, 0x0, 0x0, 0x0, 0x0, 0x0, 0x0, 0x0, 0x0, 0x0, 0x0, 0x0, 0x0, 0x0, 0x0, 0x0, 0x0, 0x0, 0x0, 0x0, 0x0, 0x0, 0x0, 0x0, 0x0, 0x0, 0x0, 0x0, 0x0, 0x0, 0x0, 0x0, 0x0, 0x0, 0x0, 0x0, 0x0, 0x0, 0x0, 0x0, 0x0, 0x0, 0x0, 0x0, 0x0, 0x0, 0x0, 0x0, 0x0, 0x0, 0x0, 0x0, 0x0, 0x0, 0x0, 0x0, 0x0, 0x0, 0x0, 0x0, 0x0, 0x0, 0x0, 0x0, 0x0, 0x0, 0x0, 0x0, 0x0, 0x2001, 0x100, 0x8000000, 0x0, 0x0, 0x100021, 0x20080, 0x40000, 0x10021, 0x1020, 0x800, 0x0, 0x0, 0x82000000, 0xC020200, 0x0, 0x40000030, 0x44020500, 0x8000000, 0x1000, 0x800000, 0x0, 0x48020000, 0x20020100, 0x8, 0x0, 0x0, 0x400000, 0x800002, 0x0, 0x3000000, 0x40060, 0x18, 0x1400, 0x0, 0x10000, 0x800000, 0x300000, 0x1000000, 0x40020400, 0x10000, 0x80000, 0x508, 0x811000, 0x0, 0x2000000, 0x60000000, 0x400, 0x10400000, 0x200, 0x20000000, 0x800200, 0x0, 0x4000000, 0x8000800, 0x400000, 0x800, 0x80, 0x100, 0x400000, 0x0, 0x0, 0x1042801, 0x400, 0x0, 0x40080, 0x200500, 0x800080, 0x0, 0x0, 0x1800000, 0x400, 0x0, 0x0, 0x0, 0x0, 0x0, 0x0, 0x0, 0x0, 0x0, 0x0, 0x0, 0x0, 0x0, 0x0, 0x0, 0x0, 0x0, 0x0, 0x0, 0x0, 0x0, 0x0, 0x0, 0x0, 0x0, 0x0, 0x0, 0x0, 0x0, 0x0, 0x0, 0x0, 0x0, 0x0, 0x0, 0x0, 0x0, 0x0, 0x0, 0x0, 0x0, 0x0, 0x0, 0x0, 0x0, 0x0, 0x0, 0x0, 0x0, 0x0, 0x0, 0x0, 0x0, 0x0, 0x0, 0x0, 0x0, 0x0, 0x0, 0x0, 0x0, 0x0, 0x0, 0x0, 0x0, 0x0, 0x0, 0x0, 0x0, 0x0, 0x0, 0x0, 0x80000100, 0x41, 0x0, 0x410, 0x400800, 0x40000100, 0x8000, 0x0, 0x20000040, 0x21000, 0x20, 0x10000000, 0x480100, 0x4020000, 0x1000000, 0xA84, 0x80000000, 0x20000, 0x100, 0x10000200, 0x80002, 0x84020800, 0x20200000, 0xA00, 0x40400, 0x200100, 0x108, 0x200C00, 0x800, 0x800, 0x200800, 0x250, 0x30000000, 0x210000, 0x400, 0x90200000, 0x81000000, 0x40000400, 0x0, 0x20000200, 0x20100000, 0x0, 0x8000120, 0x400, 0x20000100, 0x4000, 0x20200000, 0x844, 0x10040300, 0x200100, 0x1080, 0x200410, 0x800800, 0x2A4801, 0x4800002, 0xD0, 0x10100000, 0x41, 0x80, 0x200400, 0x0, 0x10001, 0x40004, 0xE0040840, 0x400080, 0x100, 0x28000100, 0x0, 0x0, 0x126000, 0x24200000, 0x840, 0x0, 0x0, 0x0, 0x0, 0x0, 0x0, 0x0, 0x0, 0x0, 0x0, 0x0, 0x0, 0x0, 0x0, 0x0, 0x0, 0x0, 0x0, 0x0, 0x0, 0x0, 0x0, 0x0, 0x0, 0x0, 0x0, 0x0, 0x0, 0x0, 0x0, 0x0, 0x0, 0x0, 0x0, 0x0, 0x0, 0x0, 0x0, 0x0, 0x0, 0x0, 0x0, 0x0, 0x0, 0x0, 0x0, 0x0, 0x0, 0x0, 0x0, 0x0, 0x0, 0x0, 0x0, 0x0, 0x0, 0x0, 0x0, 0x0, 0x0, 0x0, 0x0, 0x0, 0x0, 0x0, 0x0, 0x0, 0x0, 0x0, 0x0, 0x0, 0x0, 0x2001A01C, 0x181220, 0x80100800, 0x20054003, 0x8010000, 0x40044, 0x400000, 0x8030000, 0x4005801C, 0x1002280, 0x80100800, 0x800000, 0x10000, 0x2040, 0x0, 0x88060000, 0x4002A800, 0x202300, 0x18500424, 0x1804200, 0x0, 0x2044204, 0x420800, 0xE0004, 0x400, 0x10001, 0x804, 0x201000, 0xA0400000, 0x2000, 0x42800000, 0x8000004, 0x14, 0x200001, 0x8820000C, 0x10040020, 0x400000, 0x0, 0x800, 0x4A0000, 0x200000, 0x100000, 0x500844, 0x41280, 0x20400000, 0x0, 0x40000006, 0x80000080, 0x20, 0x200100, 0x24, 0x601, 0x4000000, 0x20, 0x501000, 0x400800, 0x600, 0x200010, 0x8000124, 0x208220, 0x480000, 0x520, 0x200000, 0x0, 0x2000, 0x12000, 0x800004C, 0x11240080, 0x400080, 0x40000124, 0x0, 0x2C0, 0x2240, 0x40000140, 0xA0, 0x1000011, 0x85000180, 0x20500, 0x800C0800, 0x4800C0, 0x200, 0x200, 0x0, 0x1, 0x0, 0x1, 0x182000, 0xD81A00, 0x100584, 0x41, 0x80, 0x800041, 0x80000000, 0x4001, 0x1000000, 0x1004, 0x100200A, 0x210, 0x0, 0x410, 0x81000180, 0x0, 0x0, 0x20080000, 0x0, 0x24000, 0x200080, 0x10000000, 0x1480000, 0x60000, 0x2000000, 0x20400000, 0x20D70, 0x0, 0x100, 0x0, 0x0, 0x40, 0x2000000, 0x100000, 0x2800, 0x80, 0x80000000, 0x210, 0x81400100, 0x40002000, 0xC080000, 0x60C80800, 0x14, 0xD0, 0x0, 0x0, 0x8000100, 0x440, 0x20000, 0x60004000, 0x20A00, 0x0, 0x0, 0x0, 0x100, 0x86040, 0x800000, 0x10000, 0x0, 0x0, 0x0, 0x0, 0x0, 0x0, 0x0, 0x0, 0x0, 0x0, 0x0, 0x0, 0x0, 0x0, 0x0, 0x0, 0x0, 0x0, 0x0, 0x0, 0x0, 0x0, 0x0, 0x0, 0x0, 0x0, 0x0, 0x0, 0x0, 0x0, 0x0, 0x0, 0x0, 0x0, 0x0, 0x0, 0x0, 0x0, 0x0, 0x0, 0x0, 0x0, 0x0, 0x0, 0x0, 0x0, 0x0, 0x0, 0x0, 0x0, 0x0, 0x0, 0x0, 0x0, 0x0, 0x0, 0x0, 0x0, 0x0, 0x0, 0x0, 0x0, 0x0, 0x0, 0x0, 0x0, 0x0, 0x0, 0x0, 0x0, 0x0, 0x0, 0x80020040, 0x4C200400, 0x1400, 0x60, 0x440002, 0x40020, 0x3, 0x104000A0, 0x20, 0x48010402, 0x10001400, 0xC0, 0x80080, 0x0, 0x8208000, 0x0, 0x80020000, 0x11000002, 0x10000400, 0x40280, 0x4C0080, 0x110001, 0x220000, 0x0, 0x40800, 0x4000000, 0x0, 0xA0, 0x102, 0x400000, 0x80102003, 0x0, 0x2000002, 0x8000410, 0x10100000, 0x10800020, 0x40100, 0x0, 0x200000, 0x200, 0x80400000, 0x1004400, 0x200400, 0x200200, 0x400080, 0x10005, 0x208000, 0x800, 0x40020, 0xC006100, 0x4, 0x810, 0x9000002, 0x500000, 0x21801, 0x10180090, 0x0, 0x8000200, 0x80000000, 0x10, 0x0, 0x42520400, 0x340000, 0x580000, 0x80000000, 0xC000102, 0x4401000, 0x10800000, 0xC00000, 0xC4010514, 0x207, 0x30001840, 0x20, 0x6441, 0x98300808, 0x20108212, 0x8010000, 0x40420210, 0x4000000, 0x80204, 0x400020, 0x3015020, 0x300008, 0x801041, 0x800000, 0x0, 0x1020000, 0x8010000, 0x12400000, 0x2082110, 0x18000104, 0x41, 0x0, 0x10220, 0x4C820000, 0x48000214, 0x40000, 0x80042001, 0x200120, 0x900221, 0x800000, 0x40000200, 0x1004, 0x8080000, 0x10040000, 0x40, 0x200028, 0x40413, 0x0, 0x200000, 0x800000, 0x8000800, 0x10000420, 0x200, 0x28000000, 0x2, 0xC010000, 0x0, 0x64001000, 0x8080000, 0x80000080, 0xD4040000, 0x80600008, 0x10, 0x80400080, 0x42600D10, 0x60000200, 0x800, 0x80, 0x42004001, 0xA0400020, 0x110631, 0x0, 0x40280000, 0x22100000, 0x4040, 0x40012081, 0x44001, 0x200008, 0x840661, 0x80880000, 0x10140, 0x20888284, 0x8000200, 0x10100000, 0x2, 0x20000080, 0x80600400, 0x100, 0x4184000, 0xC2800, 0x10500A00, 0x10204, 0x1020080, 0x1080, 0x400000, 0x80040100, 0x4000200, 0x80688002, 0xC00880, 0x300, 0x180C0080, 0xA0, 0x400010, 0x0, 0x380000, 0x1400000, 0x608008A0, 0x10000001, 0x2000000, 0x4, 0x0, 0x10100, 0x400000, 0x40000000, 0x10001030, 0x10000, 0x200A0, 0x0, 0x80000080, 0x10000, 0x121, 0x1480002, 0x40800000, 0x8C0, 0x80000, 0x40, 0x104000, 0x10000, 0x0, 0x2480000, 0x800880, 0x100000A1, 0x10040, 0x401000, 0x1304001, 0x900, 0x80080200, 0x1000000, 0x10004000, 0x10000001, 0x10220000, 0x1000, 0x41800, 0x100, 0x420000, 0x20200000, 0x5000, 0x400021, 0x2020500, 0x20001000, 0x80000A00, 0x8000800, 0x82100000, 0x4000000, 0x80000000, 0x32480, 0xC0001480, 0x400040C, 0x30000062, 0x80C00000, 0x80010000, 0x1800804, 0x30410, 0x80830000, 0x40000600, 0x10000C, 0x30100000, 0x800000, 0x100010, 0x42820800, 0x8000000, 0x60820408, 0x400, 0x88000008, 0x20910050, 0x100, 0x84100010, 0x40020004, 0x8000024, 0xC0030800, 0x81000520, 0x100400, 0x20808441, 0x80800082, 0x210000, 0x2000A00, 0x8090414, 0x80010000, 0x4600, 0x200404, 0x10000000, 0x800080, 0x80410010, 0x3128804, 0x10, 0x80400200, 0x1002000, 0x4, 0x30100420, 0x800100, 0x42200010, 0x40801800, 0x10000430, 0x80000081, 0x84040420, 0x80100404, 0x30810001, 0x80000002, 0x2300000, 0x20020004, 0x80000, 0xA0810090, 0xC0040100, 0x90000004, 0x1000, 0x2C00080, 0x242010, 0x40000800, 0x80420, 0xA0020000, 0x41001220, 0x8, 0x10819410, 0x2800000, 0x42240300, 0x4020800, 0x404B0, 0xA001010D, 0x0, 0x18000000, 0x1900040, 0x1880000, 0x4001, 0xA001000, 0x10400, 0x6, 0x4200000, 0x18100000, 0x400002, 0x800000, 0x4001, 0x40020800, 0x10220, 0x40000020, 0x480, 0x18000084, 0x1000001, 0x8880000, 0x40, 0x2000840, 0x24, 0xC0040402, 0x40, 0x10000480, 0x10000000, 0x0, 0x40004005, 0x22400800, 0x1200, 0xA2000000, 0x40, 0x10200000, 0x100001, 0x4000000, 0x200000, 0x400000, 0x300, 0x20808004, 0x200000, 0x0, 0x20001010, 0x100, 0x20800, 0x402040, 0x80000100, 0x100, 0xC0, 0x18000400, 0x20008000, 0x2000000, 0x42204141, 0x4680000, 0x20000050, 0x40000500, 0x4000200, 0x10100000, 0x30800000, 0x8040080, 0x4220041, 0x400000, 0x10100, 0x20800110, 0x200000, 0x8, 0x10200000, 0x80400100, 0x22100, 0x80200001, 0x80010500, 0x10020C, 0x8001100, 0x80000180, 0x80208000, 0x84440000, 0x182000, 0x84680000, 0x880, 0x104, 0x8001000, 0x0, 0x200050, 0x2D400000, 0x40100100, 0x0, 0x50000050, 0x400184, 0x8000101, 0x80000180, 0x80000042, 0x80040880, 0x100000, 0x800001, 0x10001050, 0x500884, 0x8000100, 0x20001080, 0x90, 0x84040080, 0x0, 0x888000, 0xB0000000, 0x400204, 0x8000080, 0x20000000, 0x0, 0x800, 0x4000000, 0xA00000, 0x0, 0x400000, 0x8000000, 0x100020, 0x0, 0x84400900, 0x44000100, 0x2200200, 0x10000000, 0x1040A000, 0x80020000, 0x20001000, 0x808000, 0x8400800, 0x80100, 0x80080, 0x184, 0x10400811, 0x80020010, 0x0, 0x41, 0x28000800, 0x40400500, 0x80080, 0x40420144, 0x71002800, 0x0, 0x20000000, 0x80000000, 0x0, 0x402000, 0x808000, 0x410040, 0x10110804, 0xA0000, 0x1800, 0x800002, 0x10000, 0x4844, 0x800, 0x10480000, 0x1040C10, 0x80000, 0x20, 0x1005000, 0x4010000, 0x400800, 0x1100000, 0x20401000, 0x3048000, 0x910A0001, 0x820, 0x20004802, 0x2010000, 0x2000200, 0x20B00001, 0x80080090, 0x100210, 0x1020, 0x0, 0x200000, 0x80000, 0x2400000, 0xD00200, 0x10004, 0x600200, 0x82002202, 0x820, 0x400000, 0x80000000, 0x400000, 0x800, 0xB0A04, 0x400, 0x1000021, 0x1100, 0x609002, 0x85450000, 0x2000200, 0x6200004, 0x10, 0x0, 0x0, 0x10000920, 0x40, 0x0, 0x1, 0xA0000000, 0x10000, 0x2084, 0x0, 0x4000100, 0x8000, 0x85C00000, 0x0, 0x8A00200, 0x41800, 0x80400000, 0x4001000, 0x108, 0x20048202, 0x84000000, 0x40004610, 0x6200002, 0x8000044, 0x1108102, 0x4000, 0x4020, 0x1004010, 0x4000000, 0x2400, 0x28000000, 0x80800, 0x1008000, 0x40, 0x80000900, 0x3, 0x0, 0x0, 0x8000003, 0x80401000, 0x10000154, 0x4000, 0x0, 0x2, 0x80000100, 0x4040, 0x8401000, 0x1210, 0x2102, 0x280000, 0x88000020, 0x4001, 0x10000, 0x0, 0x4000000, 0x80400, 0x100, 0x2000000, 0xC0, 0x80, 0x1000000, 0x0, 0x80000200, 0x20840, 0x1100004, 0x2100010, 0x80000000, 0x20040000, 0x80000000, 0x40, 0x1200, 0x21320, 0x91100040, 0x100100, 0x8, 0x0, 0x10100, 0x404000, 0xC0002, 0x20094040, 0x80100004, 0x42000020, 0x8000020, 0x1000001, 0x10000, 0x400100, 0x2002, 0x84040, 0x800008, 0x2100502, 0x80100000, 0x4000, 0x0, 0x402140, 0x1002000, 0x108A0A40, 0x108042, 0x310, 0x4000, 0x200080, 0x1000000, 0x400, 0x80040002, 0x11084, 0x20000000, 0x0, 0x0, 0x200080, 0x0, 0x400, 0x0, 0x20000000, 0x21000110, 0x1002, 0x100, 0x80, 0x0, 0x0, 0x0, 0x80, 0x100002, 0x300, 0x1100, 0xA0400000, 0x1000000, 0x2000, 0x0, 0x20000000, 0x2, 0x10, 0x100, 0x80, 0x400000, 0x2000, 0x80C0002, 0x0, 0x40000000, 0x2, 0x0, 0xD00000, 0x0, 0x40000000, 0x100000, 0x4000, 0x2000, 0x100, 0x120, 0x80604000, 0x400800, 0x2000, 0x402000, 0x20C01100, 0x0, 0x0, 0x180, 0xE00000, 0x180, 0x44, 0x2, 0x100, 0x0, 0x200000, 0x144, 0x20000000, 0x20000982, 0x0, 0x80080000, 0x28004000, 0x0, 0x0, 0x0, 0x0, 0x0, 0x0, 0x0, 0x0, 0x0, 0x0, 0x0, 0x0, 0x0, 0x0, 0x0, 0x0, 0x0, 0x0, 0x0, 0x0, 0x0, 0x0, 0x0, 0x0, 0x0, 0x0, 0x0, 0x0, 0x0, 0x0, 0x0, 0x0, 0x0, 0x0, 0x0, 0x0, 0x0, 0x0, 0x0, 0x0, 0x0, 0x0, 0x0, 0x0, 0x0, 0x0, 0x0, 0x0, 0x0, 0x0, 0x0, 0x0, 0x0, 0x0, 0x0, 0x0, 0x0, 0x0, 0x0, 0x0, 0x0, 0x0, 0x0, 0x0, 0x0, 0x0, 0x0, 0x0, 0x0, 0x0, 0x0, 0x0, 0x0, 0x0, 0x0, 0x0, 0x0, 0x0, 0x0, 0x0, 0x0, 0x0, 0x0, 0x0, 0x0, 0x0, 0x0, 0x0, 0x0, 0x0, 0x0, 0x0, 0x0, 0x0, 0x0, 0x0, 0x0, 0x0, 0x0, 0x0, 0x0, 0x0, 0x0, 0x0, 0x0, 0x0, 0x0, 0x0, 0x0, 0x0, 0x0, 0x0, 0x0, 0x0, 0x0, 0x0, 0x0, 0x0, 0x0, 0x0, 0x0, 0x0, 0x0, 0x0, 0x0, 0x0, 0x0, 0x0, 0x0, 0x0, 0x0, 0x0, 0x0, 0x0, 0x0, 0x0, 0x0, 0x0, 0x0, 0x0, 0x0, 0x0, 0x0, 0x0, 0x40000000, 0x1000000, 0x500, 0x40, 0x2040180, 0xC0210004, 0x100000, 0x50004810, 0x2020000, 0x8000000, 0x100, 0x20010000, 0x2000080, 0x100, 0x0, 0x20100000, 0x2000240, 0x2020, 0x4000404, 0x20000000, 0x20440000, 0x80000000, 0x1000000, 0x904000, 0x40000105, 0x48002400, 0x8200008, 0x410000, 0x80040080, 0x0, 0x80000000, 0x800010, 0x3000002, 0x40000, 0x8200000, 0x240, 0x82, 0x4000, 0xA1000040, 0x20000010, 0x1010004, 0x8200000, 0x4000, 0x800, 0x8000000, 0x2000000, 0x100040, 0x10, 0x41000004, 0x100020, 0x18000400, 0x400000, 0x82, 0x40200800, 0x40000001, 0x800, 0x10000, 0x80145200, 0x20005020, 0x10040, 0x400000, 0xC00, 0x40000001, 0x40000, 0x22A10082, 0x80350220, 0x20204800, 0x40, 0x100, 0x2000, 0x28000, 0x4000, 0x102, 0x200110, 0x88304020, 0x4201, 0x1000080, 0x2D00, 0x8000, 0x421004, 0x40000004, 0x100020, 0x304000, 0x1400201, 0x10000, 0x2000000, 0x1003000, 0xA0000, 0x414, 0x104072, 0x8100020, 0x50241, 0x0, 0x2400, 0xA000, 0x100400, 0x408, 0x104011, 0x88004024, 0x40400, 0x3010000, 0x242500, 0x401000, 0xA0000000, 0x40800002, 0x40110010, 0x300000, 0x10000, 0x0, 0x40500, 0x800000, 0x0, 0x40000004, 0x40004030, 0x4200000, 0x80410040, 0x0, 0x2400, 0x8000000, 0x100204, 0x802042, 0x10, 0x4104020, 0x1241, 0x3040002, 0x82400, 0x8480000, 0x20400004, 0x140002, 0x8000050, 0x20000400, 0x400000, 0x2000002, 0x200100, 0x0, 0x300, 0x20030200, 0x4A010100, 0x4000000, 0x10000, 0x2040000, 0x0, 0x8001000, 0x10000, 0x20482, 0x8A000400, 0x40, 0x408000, 0x0, 0x400020, 0x81002040, 0x20080000, 0x80000801, 0x2082000, 0x0, 0x8080, 0x24050002, 0x420000, 0x81101080, 0xA0130, 0x1040401, 0x8020042, 0x880, 0x1001002, 0x80000000, 0x20010, 0x8100881, 0x8004010, 0x280, 0x3000000, 0x4000000, 0x1C00002, 0x20000000, 0x24830, 0x1100200, 0x190, 0x10080, 0xC0001440, 0x8404800, 0x1000020, 0x1000002, 0x400400, 0x200, 0x8020100, 0x21000801, 0x43020000, 0x20400000, 0x11109020, 0x80040002, 0x800C0000, 0x5408000, 0x18080000, 0x80040289, 0x40001560, 0x28000000, 0x108022, 0x0, 0x600010, 0x2200, 0x0, 0x8004000C, 0x42001000, 0x20, 0x60, 0x2080000, 0x200210, 0x40, 0x190040, 0x240C01, 0x42022000, 0x10000040, 0x1000062, 0x2, 0x400000, 0x200080, 0x40, 0x60000220, 0x83000003, 0x0, 0x900000, 0x80000, 0x80200, 0x20205, 0x40180, 0x40200000, 0xC10040A3, 0x200800, 0xD00000, 0x1000000, 0x2070200, 0x1800, 0x80020, 0x400000, 0x80000680, 0x200008, 0x80500020, 0x1400000, 0x40840, 0x3020A00, 0x8080000, 0x1008000, 0x10000081, 0x0, 0x80201000, 0x0, 0x100010, 0x8C000A01, 0x480010, 0x0, 0x400000A0, 0x4, 0x80000040, 0x880, 0x10000, 0x800200, 0x41490, 0x2800800, 0x87000, 0x808, 0x1080, 0x0, 0x10240, 0x2000A05, 0x40000, 0x0, 0x10040002, 0x0, 0x1, 0x1000802, 0x50000, 0x2040004, 0x0, 0x400, 0x2, 0x20000040, 0x1, 0x80080, 0x10000, 0x0, 0x440840, 0x815, 0x52, 0x840, 0x21, 0x0, 0x10000, 0x46000004, 0x40800, 0x10000000, 0xB0010, 0x10401000, 0x40010, 0x20000100, 0x10800, 0x280802, 0x20004050, 0x200800, 0x18000000, 0x20000100, 0x0, 0x20000100, 0x410000, 0x28000002, 0x80001010, 0x10600041, 0xA0000, 0x20400000, 0x400000, 0x2000100, 0x2020, 0x28001000, 0x0, 0x2002, 0x30100, 0xD00, 0x1200400, 0x20400100, 0x0, 0x40002, 0x1000, 0x0, 0x8010101, 0xA0001800, 0x20200000, 0x20000100, 0x2000, 0x4080000, 0x400000, 0x12400200, 0x580C0010, 0x28004000, 0x200, 0x100, 0x80020, 0xC002000, 0x400010, 0x2802, 0x210100, 0x4008, 0x1201010, 0x1000100, 0xC0002000, 0x40000002, 0x50001010, 0x20020000, 0x8180141, 0x8000840, 0x200000, 0x24000100, 0x80000, 0x20000002, 0x800, 0x2500080, 0x48000040, 0x8000800, 0x0, 0x100, 0x22000, 0x20002000, 0x40801080, 0x10700004, 0x90050003, 0x1800, 0x500410, 0x20410000, 0x4200010, 0xA00041, 0x10000080, 0x50008C, 0x40001100, 0x20000080, 0x400000, 0x40000, 0x44300010, 0x1000044, 0x80040, 0xA, 0x100, 0x4101040, 0x880, 0x2, 0x400001, 0x800, 0x81000, 0xA0300804, 0xD0000001, 0x20000880, 0x200002, 0x21810000, 0x442C0010, 0x800000, 0x10000010, 0x1000000, 0x10004000, 0x20000040, 0x4000A0, 0xC10000, 0x400C0040, 0x84800000, 0x801090, 0x20018004, 0xC4001110, 0x40, 0x80010080, 0x80040002, 0x40000004, 0xC600000, 0x1010, 0x600020, 0x410D1002, 0x20000000, 0x1000, 0x0, 0x4380250, 0x2040001, 0x1000, 0x40800, 0xC9040100, 0x0, 0x40, 0x2, 0x0, 0x2040000, 0x1020, 0x40000, 0x0, 0x0, 0x10000, 0x800, 0x2000800, 0x40800, 0x1100, 0x40100, 0x16001, 0x8200040, 0x210, 0xA0000800, 0x40400000, 0x4000000, 0x10800040, 0x10208000, 0x200043, 0xC000040, 0x80, 0x9000802, 0x0, 0x6100000, 0x410000, 0x81000040, 0x1140, 0x600020, 0xA80, 0xA0440880, 0x4100, 0x28201004, 0x80480840, 0x48300, 0x6000001, 0x400040, 0x800, 0x800C0000, 0x80000400, 0x343000, 0x4, 0x10008100, 0x200000, 0x40, 0x200, 0x80000000, 0x80000200, 0x200201, 0x20800300, 0x80240422, 0x4020140, 0x84000000, 0x200A00, 0x0, 0x40000000, 0x1200, 0x20010040, 0x10040004, 0x200101, 0x88400040, 0x80000600, 0x81050180, 0x40000C00, 0x201800, 0x50000140, 0x10200104, 0x4104000, 0x4040, 0x80100800, 0x89000000, 0x80090100, 0x201204, 0x80040, 0x2400, 0x4005140, 0x160, 0x200600, 0x4000080, 0x40082100, 0x301004, 0x60000160, 0x220100, 0x0, 0x0, 0x1000010, 0x1000002, 0x80000, 0x8600000, 0x80820, 0x220440, 0x2000000, 0x80040C0, 0x10000012, 0x8C000000, 0x44000, 0x400800, 0x80820, 0x10005C0, 0x2040002, 0x20100040, 0x10002, 0x84040000, 0x124400, 0x8000000, 0xA0000A90, 0x220004, 0x1, 0x20004100, 0x412, 0x84880000, 0x6000, 0x8103000, 0x20800, 0x220100, 0x200100, 0x8004000, 0x10000000, 0x80000000, 0x0, 0x1200000, 0x800, 0x40002, 0x40000, 0x40, 0x2, 0x86800000, 0x40010, 0x8000800, 0x0, 0x10A, 0x80140, 0x80004000, 0x10000021, 0x1880000, 0x2C0100, 0x8A00000, 0x20000800, 0x610102, 0x100, 0xA8004100, 0x100400B2, 0x8000000, 0x484040, 0x0, 0x20000200, 0x80040503, 0x150, 0x108, 0x4012, 0x8000000, 0x40050, 0x8003000, 0x20000240, 0x40041, 0x205040, 0x80200000, 0x10000800, 0x9080982, 0x82000400, 0x2101804, 0xA0400050, 0x2, 0x0, 0x120, 0x4000, 0x10000, 0x4001, 0xA000200, 0x80400024, 0x0, 0x4D080000, 0x0, 0x1000, 0x802, 0x100001, 0x20100000, 0x8000000, 0x42050, 0x4000040, 0x204060, 0x10000010, 0x0, 0x2004520, 0x6001004, 0x80000044, 0x10202000, 0x40001000, 0x120, 0x20, 0x0, 0x100, 0xA008200, 0x104000, 0x0, 0x40080000, 0x4, 0x10004020, 0x0, 0x100, 0x2000200, 0x120400, 0x40040000, 0x4040, 0x94000000, 0x10000010, 0x0, 0x40002100, 0xA001004, 0x4, 0x11410400, 0x220200, 0x20, 0x4000, 0x800100, 0x40000000, 0x89000, 0x20100, 0x10000020, 0x1001100, 0x20000000, 0x400, 0x100, 0x100, 0x100000, 0x104200, 0x0, 0x0, 0x0, 0x0, 0x0, 0x0, 0x0, 0x0, 0x0, 0x0, 0x0, 0x0, 0x0, 0x0, 0x0, 0x0, 0x0, 0x0, 0x0, 0x0, 0x0, 0x0, 0x0, 0x0, 0x0, 0x0, 0x0, 0x0, 0x0, 0x0, 0x0, 0x0, 0x0, 0x0, 0x0, 0x0, 0x0, 0x0, 0x0, 0x0, 0x0, 0x0, 0x0, 0x0, 0x0, 0x0, 0x0, 0x0, 0x0, 0x0, 0x0, 0x0, 0x0, 0x0, 0x0, 0x0, 0x0, 0x0, 0x0, 0x0, 0x0, 0x0, 0x0, 0x0, 0x0, 0x0, 0x0, 0x0, 0x0, 0x0, 0x0, 0x0, 0x1000008, 0x40002, 0x0, 0x100000, 0xA000000, 0x40220000, 0x228880, 0x80000000, 0x10000, 0x3000482, 0x0, 0x0, 0x100, 0x24000, 0x40020040, 0x800, 0x840, 0x14080700, 0x8100400, 0x4001, 0x0, 0x444000, 0x1020000, 0x40000400, 0x2A, 0x42, 0x0, 0x910080, 0x80, 0x40000140, 0x61000000, 0x18000080, 0x82000008, 0x11000280, 0x400, 0x0, 0x8800000, 0x2040000, 0x1200000, 0x80000200, 0xA1000004, 0x80400, 0x8000400, 0x10804000, 0x0, 0x44044, 0xC1000004, 0x80040420, 0x2040002A, 0x5004402, 0x8000000, 0x1, 0x2C00180, 0x40510144, 0x44020040, 0x1080, 0x60000002, 0x45014002, 0x400400, 0x20800000, 0xA000880, 0x80050844, 0x60020040, 0x80000680, 0xA2000402, 0x41204002, 0x84000000, 0x30940000, 0x0, 0x40050144, 0x40028040, 0x80004600, 0x21004D0, 0x300010, 0x1000, 0x10040080, 0x82000100, 0x40000, 0x22202202, 0x4004E0, 0x800, 0x10000012, 0x0, 0x40410, 0x80400100, 0x50000, 0x2000, 0x80021480, 0x0, 0x44020002, 0xC000000, 0x400000, 0x0, 0x40000, 0x20202006, 0x101860, 0x92, 0x280002, 0x100, 0x10014000, 0x2000000, 0x0, 0x8480200, 0x1840, 0x10, 0x0, 0x1800, 0x844000, 0x2000080, 0x0, 0x20200000, 0x1800, 0x10, 0x41030000, 0x8001000, 0x400, 0x22000100, 0x0, 0xC00000, 0x1000, 0x20000000, 0x44200000, 0x1104, 0x80404080, 0x100, 0x86000, 0x2000, 0x40C10A00, 0x8810, 0xC020000, 0x8000900, 0x5000, 0x0, 0x2004, 0x202042, 0x60410210, 0x2010100, 0x220000, 0x28001100, 0x80000000, 0x2000000, 0x40, 0x21400202, 0x40810000, 0x420280, 0x42, 0x100104, 0x3, 0x800000, 0x200210, 0x0, 0x200, 0x20080, 0x41, 0x200100, 0x0, 0x880080, 0x200010, 0x804, 0x80100, 0x10402200, 0x2000, 0xA8, 0x2, 0x400000, 0x300030, 0x1004, 0x200, 0x42000000, 0x1000000, 0x200080, 0x0, 0x80880000, 0x40000200, 0x900800, 0x884000, 0x420000, 0x0, 0x200008, 0x8000E0, 0x480000, 0x2400000, 0x2000000, 0x800100, 0x90400080, 0x0, 0x0, 0x800480, 0x0, 0x600200, 0xA000000, 0x10900800, 0x80600020, 0x420, 0x4200008, 0x200, 0x1C90000, 0x40280200, 0x4800804, 0x880200, 0x80000080, 0x20, 0x80000080, 0x900200, 0x400000, 0x200060, 0x2000A04, 0x180900, 0x90000080, 0x40045020, 0xA8, 0x800400, 0x82080000, 0x600160, 0x901004, 0x584020, 0x30850000, 0x10082401, 0x0, 0x108020, 0x0, 0x10, 0x8808002, 0x18000000, 0x828001, 0xC002420, 0x4000000, 0x108020, 0x0, 0x2C0010, 0x8200003, 0x8000000, 0x40801, 0x1222020, 0x24000000, 0xC020, 0x800000, 0x4000000, 0x3, 0x18040100, 0x10000844, 0x48002402, 0x0, 0x4000, 0x0, 0x0, 0x0, 0x98020000, 0x0, 0x1020, 0x24000000, 0x101800, 0x10000, 0x40000, 0x200002, 0xA0000, 0x10800000, 0x12000, 0x4000000, 0x1000000, 0x0, 0x0, 0x2, 0x8020150, 0x800100, 0x400A1020, 0x0, 0x11000F0, 0xD0002, 0x100, 0x200040, 0x4000, 0xC40000, 0x2092000, 0x4000000, 0x20005000, 0x0, 0x10, 0x0, 0x8040200, 0x300000C1, 0x8003000, 0x0, 0x101020, 0x10002, 0x400004, 0x0, 0x40010, 0x200004, 0x82032043, 0x800, 0x14000, 0x4010000, 0x6000020, 0x80182000, 0x940200, 0x20200, 0x1080002, 0x0, 0x45D000, 0x0, 0x200, 0x800000C0, 0x140000, 0x2500200, 0x81001022, 0x0, 0x100090, 0x0, 0x200400, 0x480041, 0x40404084, 0x100200, 0x1182001, 0x10000000, 0x9022, 0x2, 0x2000020, 0x80000000, 0xC0000, 0x80000000, 0x1082420, 0x0, 0x10090A0, 0x0, 0x22A0000, 0x80000003, 0x50800014, 0x120001, 0x80012012, 0x0, 0x81001000, 0x10000, 0x200000, 0x2000043, 0x50100000, 0x400203, 0x80A0000, 0x1000, 0x1004842, 0x4010000, 0x120020, 0x4001000, 0x8020000, 0x20082, 0xC00C2, 0x0, 0x1008040, 0x800, 0x2100000, 0x44000002, 0x8010014, 0x220894, 0x82042020, 0x100920, 0x20008440, 0x0, 0x2020000, 0x800, 0x10110014, 0x80000100, 0x40, 0x0, 0x400, 0x4000000, 0x14, 0x8008000, 0x80004, 0x20008, 0x200, 0x4080, 0x1000601, 0x0, 0x10000, 0xA000000, 0x820, 0x400084, 0x200, 0x180, 0x1, 0x80000000, 0x100000, 0x4080080, 0x800, 0x202, 0x80040, 0x0, 0x1000000, 0x2080080, 0x0, 0xA8200000, 0x804, 0x20000100, 0x20042, 0x4100, 0x10, 0x1000000, 0x80000, 0x2, 0x10000800, 0x40, 0x0, 0x8000080, 0x2, 0x0, 0x200000, 0x80A8040, 0x840, 0x20000, 0x80000142, 0x100, 0x10010, 0x80800, 0x280000, 0x200003, 0x100010, 0x0, 0x0, 0x0, 0x200410, 0x8000000, 0x40280000, 0x1, 0x0, 0x80000402, 0x0, 0xA0004100, 0x0, 0x4840000, 0x40244000, 0x4008000, 0x10000000, 0x2020000, 0x400, 0xC000000, 0x8010, 0x400000, 0x4001, 0x8004, 0x60400, 0x0, 0x0, 0x4000000, 0x0, 0x400880, 0x4000000, 0x24380000, 0x40000, 0x800421, 0x2201, 0x0, 0x1804410, 0x4000002, 0x4000100, 0x4800004, 0x0, 0x20000, 0x20000, 0x100420, 0x1401000, 0x2000000, 0x4030000, 0x21000000, 0x40, 0x0, 0x10004500, 0xC100004, 0x10001000, 0x1C00000, 0x20000, 0x200800, 0x0, 0x410, 0x4000, 0x88104080, 0x100001, 0x800002, 0x4140, 0x84482000, 0x104000, 0x10048010, 0x0, 0x10300000, 0x400000, 0x3000000, 0x24000, 0x44, 0x4, 0x0, 0x14000003, 0x8000040, 0x0, 0x9000000, 0x22540, 0x100040, 0x20000040, 0x40002421, 0x4004011, 0x8100040, 0x10003, 0x4840102, 0x140, 0x103200, 0xA0104120, 0x3100111, 0x200, 0x880, 0x100800, 0x10000, 0x84000000, 0x81400081, 0x801900, 0x2010004, 0x80000, 0x0, 0x82, 0x8000000, 0x80000000, 0x1, 0x60000, 0x18, 0x0, 0x4000, 0x20105800, 0x8000002, 0x80404020, 0x1200000, 0xD0000810, 0x100025, 0x2200, 0x840, 0x81208082, 0x4000000, 0x24040, 0x82, 0x40041900, 0x2000200, 0x10000000, 0x4000, 0x81101080, 0x8800000, 0x0, 0x3, 0x800810, 0x100000, 0x81081000, 0x4, 0x1008000, 0x0, 0x80060, 0x21200002, 0x101000, 0x2208021, 0x1A000000, 0x944, 0x800, 0x4000000, 0x4000, 0x80000042, 0x40840800, 0x1200020, 0x2000000, 0x44, 0xC000, 0xC000000, 0x140040, 0x1000042, 0x800004, 0x20000000, 0x80400, 0x10000044, 0x91004001, 0x8000000, 0x240, 0x1000203, 0x80900000, 0x0, 0x0, 0x0, 0x0, 0x0, 0x0, 0x0, 0x0, 0x0, 0x0, 0x0, 0x0, 0x0, 0x0, 0x0, 0x0, 0x0, 0x0, 0x0, 0x0, 0x0, 0x0, 0x0, 0x0, 0x0, 0x0, 0x0, 0x0, 0x0, 0x0, 0x0, 0x0, 0x0, 0x0, 0x0, 0x0, 0x0, 0x0, 0x0, 0x0, 0x0, 0x0, 0x0, 0x0, 0x0, 0x0, 0x0, 0x0, 0x0, 0x0, 0x0, 0x0, 0x0, 0x0, 0x0, 0x0, 0x0, 0x0, 0x0, 0x0, 0x0, 0x0, 0x0, 0x0, 0x0, 0x0, 0x0, 0x0, 0x0, 0x0, 0x0, 0x0, 0x118, 0x0, 0x20000000, 0x10200, 0x10000, 0xC0000, 0x8000004, 0x500, 0x0, 0x100010, 0x100000, 0x200022, 0x800000, 0x80040, 0x20200, 0x1000, 0x101, 0x0, 0x8100024, 0x400003, 0x80, 0x10201, 0x820000, 0x40000040, 0x20000011, 0x80, 0x80, 0x100000, 0x0, 0x100, 0x4000204, 0x8000800, 0x100008, 0x10000200, 0x0, 0x0, 0x3000000, 0x2000300, 0x4, 0x800, 0x10004, 0x180000, 0x8000024, 0x200000, 0x3000002, 0x200, 0x2820000, 0xA0, 0x80100000, 0x40000080, 0x10000000, 0x0, 0x80080000, 0x200200, 0x80200, 0x400004, 0x0, 0x3280, 0x0, 0x1, 0x100, 0x200, 0x802, 0x80, 0x10020000, 0x1020, 0x200000, 0x101022, 0x0, 0x240, 0x100004, 0x80080, 0x200102, 0x8020000, 0x4000, 0x1010000, 0x4000000, 0x4080000, 0x82041, 0x28004060, 0x0, 0x82222, 0x80004400, 0x11000402, 0x0, 0x4002010, 0x0, 0x800, 0x870, 0x4012, 0x100, 0x10000, 0x40000, 0x4110000, 0x0, 0x20000000, 0x9, 0x10000022, 0x800, 0x11000, 0x3000000, 0x4186000, 0x0, 0x140040, 0x0, 0x2002, 0x4800, 0x215000, 0x1040000, 0x40A2000, 0x80080000, 0x4020, 0x151, 0x80000, 0x20100000, 0xA1250002, 0x6040000, 0x40E2000, 0x0, 0x0, 0x20243, 0x40060140, 0x800, 0x200020, 0x3440000, 0x1E0001, 0x8001, 0x20110000, 0xE, 0x0, 0x80004000, 0x10010013, 0xA040002, 0x4082410, 0x0, 0x50000, 0x40A01, 0x40084103, 0x88000000, 0x21C440, 0x4000002, 0x41A2400, 0x1000000, 0x28000000, 0x80440014, 0x40020, 0x400000, 0x21, 0x800000, 0x10, 0x2001000, 0x800000, 0x5, 0x60050, 0x0, 0x1001, 0x2040000, 0x42400000, 0x0, 0x10000040, 0x40000, 0x4020, 0x28, 0x20000001, 0x28C0002, 0x2000000, 0x4080000, 0x18010950, 0x40011, 0x40000100, 0x200000, 0x31, 0x840000, 0x2120000, 0x8000, 0x80000, 0x100080, 0x60, 0x80, 0x30000001, 0x1000000, 0x42004000, 0x40, 0x0, 0x0, 0x0, 0x200000C0, 0x4420, 0x1010000, 0x100004, 0x4208002, 0x0, 0x400A1, 0x40000020, 0x400000, 0x20000030, 0x40000, 0x400020, 0xA00000, 0x80A0050, 0x30010, 0x2000020, 0x400040, 0x40023, 0x20040000, 0x40124000, 0x4000040, 0x8000200, 0x210201, 0x0, 0x24000040, 0x140042, 0x20C0000, 0x100204, 0x4200080, 0x8080050, 0x0, 0x0, 0x0, 0x0, 0x0, 0x0, 0x0, 0x0, 0x0, 0x0, 0x0, 0x0, 0x0, 0x0, 0x0, 0x0, 0x0, 0x0, 0x0, 0x0, 0x0, 0x0, 0x0, 0x0, 0x0, 0x0, 0x0, 0x0, 0x0, 0x0, 0x0, 0x0, 0x0, 0x0, 0x0, 0x0, 0x0, 0x0, 0x0, 0x0, 0x0, 0x0, 0x0, 0x0, 0x0, 0x0, 0x0, 0x0, 0x0, 0x0, 0x0, 0x0, 0x0, 0x0, 0x0, 0x0, 0x0, 0x0, 0x0, 0x0, 0x0, 0x0, 0x0, 0x0, 0x0, 0x0, 0x0, 0x0, 0x0, 0x0, 0x0, 0x0, 0x22000, 0x40004400, 0x80200400, 0x20000041, 0x1800000, 0x40050500, 0x4000000, 0x20020, 0x41400444, 0x40005160, 0x80004008, 0x40, 0x800080, 0x40350000, 0x4880000, 0x4000, 0xE02540, 0x44540, 0x8, 0x840000, 0x0, 0x412000, 0x80A040, 0x40001100, 0x200002, 0x4200, 0x98300100, 0x40241, 0x81000000, 0x10400, 0x800044, 0x404400, 0x200402, 0x200, 0x8, 0x41, 0x88000000, 0x40101, 0x44000040, 0x20100000, 0x40802040, 0x40000010, 0x80204008, 0x10401, 0x80000080, 0x50110, 0x1000, 0x80900004, 0x302042, 0x4000, 0x84100020, 0x2C0, 0x81000000, 0x42440, 0x880000, 0xA0000000, 0x61200044, 0x160, 0x0, 0x400040, 0x80000000, 0x40C20, 0x40480000, 0x60400004, 0xE1002002, 0x40000150, 0x4000, 0x800410, 0x80, 0x10C10, 0x8841081, 0x40500800, 0x0, 0x0, 0x0, 0x0, 0x0, 0x0, 0x0, 0x0, 0x0, 0x0, 0x0, 0x0, 0x0, 0x0, 0x0, 0x0, 0x0, 0x0, 0x0, 0x0, 0x0, 0x0, 0x0, 0x0, 0x0, 0x0, 0x0, 0x0, 0x0, 0x0, 0x0, 0x0, 0x0, 0x0, 0x0, 0x0, 0x0, 0x0, 0x0, 0x0, 0x0, 0x0, 0x0, 0x0, 0x0, 0x0, 0x0, 0x0, 0x0, 0x0, 0x0, 0x0, 0x0, 0x0, 0x0, 0x0, 0x0, 0x0, 0x0, 0x0, 0x0, 0x0, 0x0, 0x0, 0x0, 0x0, 0x0, 0x0, 0x0, 0x0, 0x0, 0x0, 0x21640000, 0x41, 0x202040A0, 0x2, 0x80400000, 0x510, 0x80000804, 0x80820, 0x0, 0x40, 0x200088, 0x20500403, 0xA0800000, 0x40210010, 0xA40, 0xB0800, 0x80000000, 0x2004010, 0x88, 0x100000, 0x80800000, 0x40100100, 0x2081080, 0x8004000, 0x210400C0, 0x4000040, 0x20000024, 0x100000, 0xA0000000, 0x210, 0x108000, 0xA34, 0x200002C0, 0x24201, 0x108, 0x420, 0x80480000, 0x44, 0x1000, 0x8000000, 0x480, 0x84004240, 0x4004000, 0x480, 0x80000000, 0x0, 0x0, 0x8000004, 0x30400084, 0x4000021, 0x80000080, 0x900412, 0x80400000, 0x310, 0x208000, 0x4A0000, 0x20100000, 0x4000001, 0x4000420, 0x800482, 0x80480000, 0x0, 0x81800, 0x850, 0x80010022, 0x46084040, 0x8C004020, 0x900402, 0x480000, 0x2000140, 0x81804, 0x0, 0x4, 0x41000, 0x20200080, 0x80008000, 0x85010000, 0x86000000, 0x4100804, 0x0, 0x1, 0x2002100, 0x0, 0x1100000, 0x180, 0x82000000, 0x8000, 0x10000000, 0x21000000, 0x2000, 0x1020, 0x108000, 0x84000100, 0x84060000, 0x2000000, 0x8000080, 0x0, 0x1001, 0x200000, 0x80100001, 0x0, 0x2000000, 0x1100000, 0x10000100, 0x1020000, 0x11000, 0x0, 0x8000, 0x1010180, 0x400010, 0x4020000, 0x800000, 0x1000001, 0x1001020, 0x200000, 0x108010, 0x880, 0x82400000, 0x20804, 0xC0800000, 0x80, 0x40002, 0x0, 0x10000000, 0x80000000, 0x430010, 0x2002045, 0x44080, 0x530120, 0xA140082, 0x90201000, 0x10200, 0x8000000, 0x4, 0x8080, 0x40400, 0xC20200, 0x9040002, 0x80000000, 0x40000, 0x5400100, 0x20200, 0x80000241, 0x30000600, 0x108080, 0x4001, 0x4004000, 0x0, 0x81000082, 0x200440, 0x480204, 0x10000860, 0x11002410, 0x30, 0x4020, 0x10200000, 0x89000000, 0x204000, 0x108000, 0x90000014, 0x1008404, 0x0, 0x4020, 0x10000001, 0x8000100, 0x100120, 0x82200004, 0x80001040, 0x1900010, 0x0, 0x200000, 0x10, 0x5000180, 0x0, 0xC480200, 0xA58D0, 0x1000000, 0x20, 0x88004100, 0x1000000, 0x80, 0x4000, 0x180080, 0x60, 0x1000004, 0x80, 0x4304120, 0x0, 0x80, 0x402120, 0x2100040, 0x80081900, 0x200000, 0x1000090, 0x8000000, 0x82, 0x1000102, 0x80204140, 0x8080040, 0x50C00140, 0x20010020, 0x1000080, 0x100, 0x0, 0x80800100, 0x40012000, 0x102000, 0x10C00060, 0x20000000, 0x1000020, 0x20, 0x8480, 0x8000080, 0x40, 0x82101200, 0x881900, 0x20018002, 0x100400, 0x14200008, 0x10800800, 0x8800000, 0xC0000000, 0x4520A000, 0xC0400110, 0x840A, 0x230000, 0x4600000, 0x20100800, 0xA000000, 0x410000, 0x40320A00, 0x400, 0x40018002, 0x60400, 0x10000004, 0x0, 0x80000, 0x10004, 0x40000800, 0x20800000, 0x22000010, 0x400, 0x14000108, 0x20040A02, 0x2800000, 0x80200000, 0xA80, 0x30000000, 0x2010000, 0x0, 0x0, 0x10000000, 0x10000, 0x400004, 0x2040880, 0x20800100, 0x20000002, 0x4080000, 0x400004, 0x10000800, 0x208C0000, 0x140000, 0x4020880, 0x111000, 0x40000004, 0x0, 0x100104, 0x8800, 0x2080000, 0x4, 0xC0220000, 0x0, 0x60100222, 0x0, 0x4, 0x20000A00, 0x8000000, 0x80410800, 0x8800A00, 0x10000500, 0x60000002, 0x2000, 0x20000084, 0x9800, 0x880000, 0x20000, 0xE2020801, 0x80101000, 0xB0042410, 0x200001, 0x80604000, 0x10, 0x8000800, 0xD60, 0x208041, 0x100000, 0x2400, 0x205040, 0x200000, 0x41, 0x400082, 0x10D00, 0x2000000, 0x1050, 0x904024C0, 0x2004040, 0x4704000, 0x240, 0x8400800, 0x50801, 0x40800000, 0x1240, 0x20200400, 0x14000, 0x400020, 0x502C0, 0x80, 0x2D00, 0x800005, 0x1004, 0x60100040, 0x210000, 0x0, 0x0, 0x400000, 0x0, 0x8081, 0x1A80, 0x30000040, 0x104000, 0x8000000, 0x404A0, 0x80800000, 0x2000, 0x88080, 0x41800, 0x20002, 0x10000, 0x0, 0x410210, 0x81440082, 0x40002500, 0x88005, 0xA0010040, 0x20100600, 0x41344000, 0x4004000, 0x0, 0x4000000, 0x2020, 0x0, 0x40000080, 0x400040, 0x48040010, 0x4404000, 0x0, 0x800, 0x2100, 0x8080, 0x20000000, 0x80000802, 0x20400, 0x8600000, 0x800001, 0x1440900, 0x80000, 0x1000, 0x8080400, 0x810822, 0x480A0000, 0x100000, 0x1003, 0x3880800, 0x512040, 0x49020800, 0x10500, 0x80000000, 0x0, 0x8500120, 0x401, 0x3000800, 0x82510100, 0x660A0000, 0x80420, 0x1000442, 0x1020, 0x20600400, 0xC40, 0x2800000, 0x100000, 0x21002, 0xB0000, 0x100402, 0x21000, 0x600400, 0x10800000, 0x9880000, 0x100000, 0x40000000, 0x20100, 0x110007, 0x40, 0x20100400, 0x4401, 0x6800000, 0x4202800, 0x42000800, 0x500, 0x800000C4, 0x41002, 0x4200000, 0x1800441, 0x2800000, 0x42604000, 0x9200281, 0x1A4E60, 0xC4, 0x1040402, 0x500000, 0x1008000, 0x3800000, 0x82000100, 0x20140002, 0x80520, 0x80108001, 0x100020, 0x24200028, 0x1C000, 0x7800002, 0xC0010000, 0x200000, 0x30400, 0x12090, 0x1000140, 0x20504460, 0x1040002, 0x810800, 0x0, 0x0, 0x20000, 0x8008D0, 0x140, 0x20400000, 0x4002, 0x8840000, 0x0, 0x40C00000, 0x18004000, 0x11010EC0, 0x85000500, 0x20000000, 0xC00002, 0x88D0000, 0x202004, 0x800001, 0x10010040, 0x10080, 0x10000110, 0x8000000, 0x1003, 0x20000800, 0x4030401, 0x1000080, 0x8024004, 0x810810, 0x80004100, 0x201000, 0x0, 0x102, 0x0, 0x48000002, 0x100, 0x10020000, 0x86000400, 0x0, 0x20404000, 0x10000, 0x104, 0x40000000, 0x400000, 0x10000, 0x80111000, 0x8000420, 0x80404001, 0x4010002, 0x10840, 0xC80C1800, 0x80040104, 0x1008000, 0x84010000, 0x8400000, 0x840001, 0x10000, 0x801, 0x1001000, 0x808E4400, 0x41060800, 0x14104000, 0x8300020, 0x1840001, 0x4000000, 0x2420, 0x83001000, 0x80800C80, 0x808005, 0x2001, 0x4000020, 0x8C00, 0x20800000, 0x80200, 0x804, 0x10000110, 0x1, 0x2020C0, 0x20200060, 0x30000880, 0x3400000, 0x200110, 0x21800, 0x10000010, 0x402184, 0x42100, 0x4200120, 0x10108000, 0x2000000, 0x80780110, 0xA00800, 0x50, 0x3800104, 0x40001, 0x24200000, 0x20000C10, 0x480880, 0x40480210, 0x120000, 0x10000000, 0x80000001, 0x0, 0x4200020, 0x10000400, 0x0, 0x2000000, 0x26000000, 0x80000010, 0x1400100, 0x2001, 0x44, 0x10000020, 0x8000000, 0x600000, 0x4000204, 0x90801850, 0x80040100, 0x207001, 0x200000, 0x100800, 0x880000, 0x40400640, 0x101204, 0x880860, 0x82000010, 0x2100, 0x4200040, 0x90008C00, 0x48C0000, 0x400100, 0x2300200, 0x80080020, 0x0, 0x3000, 0x200044, 0x30000000, 0x2040000, 0x80000000, 0x46B00204, 0x8000040, 0x0, 0x0, 0x0, 0x0, 0x0, 0x0, 0x0, 0x0, 0x0, 0x0, 0x0, 0x0, 0x0, 0x0, 0x0, 0x0, 0x0, 0x0, 0x0, 0x0, 0x0, 0x0, 0x0, 0x0, 0x0, 0x0, 0x0, 0x0, 0x0, 0x0, 0x0, 0x0, 0x0, 0x0, 0x0, 0x0, 0x0, 0x0, 0x0, 0x0, 0x0, 0x0, 0x0, 0x0, 0x0, 0x0, 0x0, 0x0, 0x0, 0x0, 0x0, 0x0, 0x0, 0x0, 0x0, 0x0, 0x0, 0x0, 0x0, 0x0, 0x0, 0x0, 0x0, 0x0, 0x0, 0x0, 0x0, 0x0, 0x0, 0x0, 0x0, 0x0, 0x10000304, 0x41140, 0x800040A0, 0x500011, 0xA4C00000, 0x100, 0x80804, 0x20801080, 0x10000300, 0x80000000, 0x1C0, 0x400002, 0x5000000, 0x1E0000, 0xC0004, 0x0, 0x5001C4, 0x200, 0x80004080, 0x1100012, 0x1800000, 0x10, 0x80802000, 0x40000080, 0x80000004, 0x40000, 0x4000, 0x13, 0x80000, 0x4080000, 0x4, 0x1004, 0x900000, 0x1210, 0x0, 0x10000001, 0x1000000, 0x40040400, 0x800200, 0x0, 0x1000481, 0x40000200, 0x180, 0x2, 0x0, 0x102040, 0x401002, 0x40001080, 0x100040, 0x80040093, 0x8100000, 0x100021, 0x5000000, 0x402C0010, 0x8C82200, 0xC80000, 0x81000080, 0x3, 0x0, 0x10000012, 0x5800000, 0x4200040, 0x800002, 0x880000, 0x800800, 0x90000010, 0x20, 0x22, 0x80880000, 0x4040040, 0x803002, 0x40004900, 0x0, 0x0, 0x0, 0x0, 0x0, 0x0, 0x0, 0x0, 0x0, 0x0, 0x0, 0x0, 0x0, 0x0, 0x0, 0x0, 0x0, 0x0, 0x0, 0x0, 0x0, 0x0, 0x0, 0x0, 0x0, 0x0, 0x0, 0x0, 0x0, 0x0, 0x0, 0x0, 0x0, 0x0, 0x0, 0x0, 0x0, 0x0, 0x0, 0x0, 0x0, 0x0, 0x0, 0x0, 0x0, 0x0, 0x0, 0x0, 0x0, 0x0, 0x0, 0x0, 0x0, 0x0, 0x0, 0x0, 0x0, 0x0, 0x0, 0x0, 0x0, 0x0, 0x0, 0x0, 0x0, 0x0, 0x0, 0x0, 0x0, 0x0, 0x0, 0x0, 0x800, 0x120080, 0x0, 0xC08000, 0x1000000, 0x20000, 0x80080, 0x40000, 0x0, 0xA0040, 0x0, 0x800020, 0x0, 0x2402010, 0x80000, 0x0, 0x40000, 0x80, 0x400000, 0x401, 0x0, 0x2500020, 0x4400000, 0x8000140, 0x1000C02, 0xC2, 0x28400000, 0x844020, 0x2010002, 0x400000, 0x40900200, 0x4100, 0x10004, 0x20000, 0x8000080, 0x4C001, 0x0, 0x2000000, 0x2000000, 0x10000100, 0x840001, 0x82040, 0x400080, 0x8800, 0x8040000, 0x704020, 0x0, 0x10000000, 0x40028, 0x80202, 0x8000000, 0x201022, 0x3040000, 0x420000, 0x800000, 0x10, 0x40045, 0x40, 0x20000180, 0x1000, 0x820C0000, 0x400000, 0x8000000, 0x150, 0x2040001, 0x302, 0x401180, 0x10400, 0x2000800, 0x80720000, 0x48000000, 0x10000140, 0x810141, 0x40000000, 0x100100, 0x20005000, 0x82, 0x4024411, 0x8828000, 0x800000, 0x20000009, 0x0, 0x80000080, 0x80010402, 0x0, 0x400410, 0x3000840, 0x24800, 0xA0800009, 0x40022000, 0x8, 0x20011000, 0x0, 0x104010, 0x0, 0x14, 0x210149, 0x1080120, 0x100080, 0x20000040, 0x10002, 0x0, 0x80208000, 0x24120, 0x21000001, 0x0, 0x800, 0x1811000, 0x40080, 0x4400, 0x80000000, 0x0, 0x20000003, 0x1000100, 0x40, 0x1011000, 0x2000882, 0x4004410, 0x40, 0x800010, 0x20101, 0xC1081020, 0x20000080, 0x20801000, 0x100, 0xA0000, 0xC8000004, 0x8004400, 0x3000119, 0x80000100, 0x80000004, 0x21401000, 0x2840802, 0x4000, 0x80008000, 0x410, 0x18, 0x48081120, 0x80004004, 0x21001002, 0xA840000, 0x200110, 0x8C020000, 0x8000410, 0x0, 0x1000, 0x0, 0x10000, 0x0, 0x2000000, 0x0, 0x0, 0x0, 0x1000, 0x0, 0x0, 0x0, 0x2000000, 0x800, 0x0, 0x0, 0x0, 0x0, 0x0, 0x0, 0x0, 0x2000800, 0x400, 0x80020000, 0x0, 0x0, 0x0, 0x800, 0x0, 0x40000800, 0x0, 0x0, 0x0, 0x0, 0x0, 0x0, 0x0, 0x800, 0x0, 0x0, 0x1000, 0x0, 0x0, 0x0, 0x0, 0x800, 0x0, 0x0, 0x0, 0x0, 0x0, 0x0, 0x0, 0x2000000, 0x0, 0x0, 0x0, 0x0, 0x0, 0x0, 0x200, 0x800, 0x0, 0x0, 0x1000, 0x0, 0x800, 0x0, 0x0, 0x800, 0x0, 0x2006, 0xA0280, 0x8100080, 0x81000002, 0x1000180, 0x6024C00, 0x84080280, 0x40800004, 0x2012, 0x180110, 0x204880, 0x12, 0x83000102, 0x2004040, 0x24000802, 0x408248A4, 0x20406, 0x100000, 0x41A0, 0x100C413, 0x4000100, 0x66440, 0x80001802, 0x60000880, 0x302, 0x21180, 0x800, 0x8100D000, 0x4000000, 0x6004000, 0xC5480000, 0x20480000, 0x800, 0x1080, 0x860, 0x80000000, 0x6000000, 0x2404400, 0x83001A80, 0x8000010, 0x21000204, 0x100, 0x200040, 0x80004000, 0x10000, 0x2200001, 0x2402080, 0x54, 0x1002010, 0x0, 0x88000020, 0x81008010, 0x0, 0x2000000, 0x80080280, 0x20480000, 0x1008000, 0x81080, 0x8000008, 0x1004002, 0x4010000, 0x2000400, 0x81800, 0x4, 0x11000310, 0x80, 0x860, 0x0, 0x10000, 0x40, 0x84040880, 0x100000, 0x80020001, 0xC8001402, 0x20000400, 0x100000, 0x800000, 0x40200, 0x802000, 0x8000410, 0x2000008, 0x8A000002, 0x1400, 0x20148000, 0x400000, 0x110000, 0x1000040, 0x8040000, 0x82460008, 0x11000000, 0x20000000, 0x20400080, 0xA3000000, 0x80210000, 0x0, 0x18040000, 0x440020, 0x4002000, 0x1080, 0x1C01000, 0x2000000, 0x400240, 0x403040, 0x0, 0x808000, 0x2000010, 0x80000000, 0x11008000, 0x0, 0x400000, 0x4001840, 0x1000, 0x12208002, 0x1004202, 0x80000008, 0x1101020, 0x1400000, 0x30000, 0x4008040, 0x10, 0xE12000, 0x6203, 0xC004040, 0x0, 0x180, 0xE0200, 0x84803000, 0x8000000, 0x850500, 0x90004400, 0xC0040C0, 0x101000, 0x0, 0x120C10, 0x0, 0x800000, 0x808401, 0x2, 0x30100000, 0x101000, 0x2000100, 0x4, 0x4000000, 0x84000, 0x202040, 0x0, 0x80000000, 0x51, 0x84000100, 0x4421, 0x2A000000, 0x40, 0x200410, 0x4000000, 0x8004000, 0x600001, 0x0, 0x2101, 0x400A8000, 0x0, 0x40, 0x200, 0x88004000, 0x10850401, 0x2000000, 0x4406000, 0x40022000, 0x420, 0x2002, 0x100000, 0x8104000, 0x800041, 0x4400100, 0x10000, 0x80800, 0x20001240, 0x1000140, 0x40004040, 0x8100008, 0x10000000, 0x80000000, 0x2010, 0x0, 0x400840, 0x101, 0x40000100, 0xC004000, 0x210400, 0x80000100, 0x12100, 0x3004, 0x20004000, 0x200004, 0x100112, 0x88400048, 0x10000200, 0x87000180, 0x80282000, 0x80804, 0x20000220, 0x1802040, 0x100000, 0x80000440, 0x0, 0x8A000080, 0x40200000, 0x80000800, 0x60100200, 0x1, 0x40040000, 0x88000040, 0x20810600, 0x80, 0x40000000, 0x80801000, 0x20084420, 0x300300, 0xC1020, 0x400400, 0x200002, 0x840000, 0x100001, 0x0, 0x0, 0xC60, 0xA005000, 0x0, 0x20000202, 0x40000, 0x0, 0x40000002, 0xA0140, 0x810, 0x200, 0x20001040, 0x0, 0x1040000, 0x0, 0x20080001, 0x80054, 0x80100204, 0x42020, 0x1940, 0x8000, 0x40000, 0x40280000, 0x200002, 0x18000010, 0x80000010, 0x400, 0x20001040, 0x20100200, 0x800000, 0x40104000, 0x40, 0x8000010, 0x80200050, 0x40000, 0x20000040, 0x20100080, 0x1040000, 0x22000, 0xC40040, 0x8000050, 0x80000281, 0xC0200100, 0x20001880, 0x4088C0, 0x2040800, 0x43A0120, 0x20600000, 0x50000010, 0x1C6, 0x40010400, 0x20004040, 0x118000, 0x4C0800, 0x440A4104, 0x3, 0x10000, 0x140201, 0x30100, 0x20000040, 0x11080, 0x50000, 0x400A0101, 0x20200080, 0x30010050, 0x0, 0x0, 0x0, 0x0, 0x0, 0x0, 0x0, 0x0, 0x0, 0x0, 0x0, 0x0, 0x0, 0x0, 0x0, 0x0, 0x0, 0x0, 0x0, 0x0, 0x0, 0x0, 0x0, 0x0, 0x0, 0x0, 0x0, 0x0, 0x0, 0x0, 0x0, 0x0, 0x0, 0x0, 0x0, 0x0, 0x0, 0x0, 0x0, 0x0, 0x0, 0x0, 0x0, 0x0, 0x0, 0x0, 0x0, 0x0, 0x0, 0x0, 0x0, 0x0, 0x0, 0x0, 0x0, 0x0, 0x0, 0x0, 0x0, 0x0, 0x0, 0x0, 0x0, 0x0, 0x0, 0x0, 0x0, 0x0, 0x0, 0x0, 0x0, 0x0, 0x2012, 0x140600, 0x100000, 0x1800001, 0x0, 0x10800, 0x60000000, 0xA0C84000, 0x10812, 0x4180402, 0x8500000, 0x814000, 0x0, 0x80000800, 0x80800, 0x20010000, 0x81A030, 0x4080000, 0x8200800, 0x1840420, 0xC000000, 0x2446000, 0x40000000, 0x0, 0x10, 0x200000, 0x8500008, 0x4041, 0x0, 0x40400, 0x81001000, 0x44500, 0x10800, 0x200000, 0x88000000, 0x804000, 0x0, 0x42000, 0x0, 0x24000, 0x12822, 0x100050, 0x88000404, 0x40001, 0x10000, 0x2200, 0x1000, 0x860000, 0x40000002, 0x1400A0, 0x700004, 0x80804000, 0x0, 0x50401, 0x80000, 0x20004100, 0x210022, 0x3D0080, 0x4000000, 0x80004040, 0x0, 0x400, 0x1083000, 0x20040004, 0x50008010, 0x10140280, 0xC400020, 0x1801041, 0x4000000, 0x4200, 0xCB100080, 0x1A0, 0x800, 0x6000400, 0x400000, 0x101000, 0x400900, 0xC0000800, 0x0, 0x10010080, 0x12000200, 0xA003002, 0x10000400, 0x4800, 0x20040800, 0x400400, 0x1100000, 0x80000000, 0x42, 0x4090000, 0x20000000, 0x40000, 0x20400102, 0x400, 0xC1000040, 0x100, 0x800, 0x204411, 0x40, 0x0, 0x900, 0x400144, 0x40000200, 0x450, 0x840000, 0x6210441, 0x4400000, 0x8000, 0x0, 0x20004, 0x0, 0x40104, 0xC00010, 0x4014010, 0x4000400, 0x11210420, 0x0, 0x20804, 0x100000, 0x200, 0x628400C0, 0x1E000010, 0x80400000, 0x1040020, 0x8B040000, 0x80400D61, 0x41002000, 0x90014010, 0x60800402, 0x4A310002, 0x84000408, 0x210000, 0x3400180, 0xC0000140, 0x8044, 0x80000000, 0x810400, 0x8004402, 0x504000, 0x10240200, 0x80, 0x80062144, 0x3000, 0x90004004, 0x10, 0x292400, 0x4604004, 0x40800, 0x80, 0x80400001, 0x8202203, 0x80000014, 0x2800, 0x300400, 0x4600040, 0x0, 0x800, 0x404025, 0x80008202, 0x50000010, 0x1102010, 0x9010400, 0x400000, 0x800, 0x2000000, 0x82444165, 0x6A200003, 0x60, 0xC2100000, 0x10200000, 0x4404040, 0x0, 0x8000880, 0x121, 0x8300200, 0x90000000, 0x42100000, 0x82B2000, 0x4000000, 0x0, 0x8000800, 0x4120, 0x41, 0xC0000014, 0x2008010, 0x20000, 0x4000000, 0x10000000, 0x40880, 0x2004120, 0x62300081, 0x90000440, 0x40140004, 0x8220000, 0x800, 0xA0208800, 0x8000000, 0x424001, 0x48320000, 0x50, 0x62108004, 0xC030000, 0x4100, 0x80000800, 0x880, 0x20100, 0x40000001, 0x20000, 0x20100100, 0x20400, 0x200940, 0x10000800, 0x8000800, 0x40020000, 0x28200041, 0x80810000, 0x0, 0x0, 0x0, 0x0, 0x0, 0x0, 0x0, 0x0, 0x0, 0x0, 0x0, 0x0, 0x0, 0x0, 0x0, 0x0, 0x0, 0x0, 0x0, 0x0, 0x0, 0x0, 0x0, 0x0, 0x0, 0x0, 0x0, 0x0, 0x0, 0x0, 0x0, 0x0, 0x0, 0x0, 0x0, 0x0, 0x0, 0x0, 0x0, 0x0, 0x0, 0x0, 0x0, 0x0, 0x0, 0x0, 0x0, 0x0, 0x0, 0x0, 0x0, 0x0, 0x0, 0x0, 0x0, 0x0, 0x0, 0x0, 0x0, 0x0, 0x0, 0x0, 0x0, 0x0, 0x0, 0x0, 0x0, 0x0, 0x0, 0x0, 0x0, 0x0, 0x10000000, 0x200200, 0x80000804, 0x81208010, 0x0, 0x800, 0x800000, 0x80401084, 0x0, 0x10401, 0x4000, 0x80448000, 0x20010000, 0x4020A00, 0x100002, 0x10040010, 0x10608800, 0x100000, 0x0, 0x408000, 0x0, 0x204, 0x8500203, 0x0, 0x20, 0x2100000, 0x20, 0x80200000, 0x1000002, 0x80000000, 0x102002, 0x10C00080, 0x8000, 0x14110000, 0x1800, 0x640800, 0x10000, 0x4000800, 0x100240, 0x10804080, 0x48000, 0x4112000, 0x4, 0x80000000, 0x4000800, 0x400200, 0x20100040, 0x80010000, 0x21108082, 0x40010210, 0x1080, 0x80200000, 0x4010000, 0x2000, 0x6080006, 0x80000000, 0x1008800, 0x11110001, 0x0, 0x304080, 0x0, 0x80000000, 0x9002, 0x800100, 0x20118010, 0x2000001, 0x440, 0x80340020, 0x4000000, 0x400820, 0x100006, 0x80850000, 0x800, 0x400B2003, 0x0, 0x80001000, 0x24080000, 0x480000, 0x40001040, 0x8018C0, 0x100800, 0x80020, 0x400, 0x818080, 0x40080, 0x2000, 0x4400000, 0x10400000, 0x800C00, 0x80000100, 0x480, 0xA0010000, 0x800800, 0x402000, 0x28000000, 0x10010, 0x508080, 0xC0001, 0x20000840, 0x400080, 0x0, 0x20800, 0x400285, 0x20901000, 0x100200, 0x100000, 0x4, 0x80211050, 0x4010002, 0x202410, 0x400001, 0x20890000, 0x20000202, 0x80040080, 0x104000, 0x0, 0x82010000, 0x2400, 0x20C00080, 0x80, 0x1508200, 0x900F0000, 0x800, 0x618050, 0x24000000, 0x4080000, 0x80004, 0x10800084, 0x1100080, 0x8082001, 0x20000840, 0x80304010, 0x88000000, 0x80010, 0x80201, 0x10850084, 0x1310288, 0x8080001, 0x4020, 0x219020, 0x88050000, 0x0, 0x502000, 0x20110000, 0x1000004, 0x1830C2, 0x20200800, 0x80000000, 0x6050000, 0x6480000, 0x20001880, 0x10100000, 0x100090, 0x900A0, 0x0, 0x5000, 0x4000100, 0x2000000, 0x1880, 0x120000, 0x1000010, 0x81080110, 0x400000, 0x80001000, 0x4090100, 0x4000, 0x44E0802, 0x104084, 0x110100, 0x1000040, 0xC20, 0x1000000, 0x0, 0x0, 0x80080, 0x24, 0x210, 0x0, 0x400000, 0x80001C00, 0x0, 0x2000000, 0x1000, 0x4020, 0x800, 0x20004A0, 0x80100860, 0x1, 0x4080000, 0x2000000, 0x24480002, 0x0, 0x400200, 0x0, 0x400020, 0x1800010, 0x0, 0x420, 0x80000, 0x4420, 0x10000000, 0x200100, 0x400020, 0x400, 0x0, 0x210400, 0x21000, 0x4020, 0x10150000, 0x0, 0x0, 0x80001001, 0x0, 0x4021, 0x20000000, 0x120480, 0x0, 0x0, 0x0, 0x0, 0x0, 0x0, 0x0, 0x0, 0x0, 0x0, 0x0, 0x0, 0x0, 0x0, 0x0, 0x0, 0x0, 0x0, 0x0, 0x0, 0x0, 0x0, 0x0, 0x0, 0x0, 0x0, 0x0, 0x0, 0x0, 0x0, 0x0, 0x0, 0x0, 0x0, 0x0, 0x0, 0x0, 0x0, 0x0, 0x0, 0x0, 0x0, 0x0, 0x0, 0x0, 0x0, 0x0, 0x0, 0x0, 0x0, 0x0, 0x0, 0x0, 0x0, 0x0, 0x0, 0x0, 0x0, 0x0, 0x0, 0x0, 0x0, 0x0, 0x0, 0x0, 0x0, 0x0, 0x0, 0x0, 0x0, 0x0, 0x0, 0x1010010, 0x80000020, 0x4C00, 0x20810400, 0x0, 0x1, 0x80000, 0x800000, 0x1010090, 0x8004000, 0x80100800, 0x20000042, 0x800000, 0x4002001, 0x20000, 0x70000, 0x41000010, 0x100220, 0x10004400, 0x840040, 0x2800000, 0x22000, 0x28000, 0x70080, 0x3000042, 0x80001E0, 0x20000400, 0x0, 0x4000000, 0x0, 0x40800, 0x40080, 0x200, 0xF0, 0x8100004, 0x40001, 0x2000000, 0x0, 0x1000000, 0x8010000, 0x40820040, 0x2020, 0x400, 0x10000, 0x0, 0x2010, 0x80020080, 0x20020000, 0x200002, 0x80000C0, 0x0, 0x10000, 0x2000000, 0x42021, 0x40080000, 0x28144500, 0x4022004B, 0x800000A2, 0x80000400, 0x10001, 0x2000000, 0x21, 0x41000001, 0x60544400, 0x41A00810, 0x40022, 0x504000, 0x1A10000, 0x2000000, 0x4040001, 0xC0020000, 0x28004120, 0x0, 0x0, 0x0, 0x0, 0x0, 0x0, 0x0, 0x0, 0x0, 0x0, 0x0, 0x0, 0x0, 0x0, 0x0, 0x0, 0x0, 0x0, 0x0, 0x0, 0x0, 0x0, 0x0, 0x0, 0x0, 0x0, 0x0, 0x0, 0x0, 0x0, 0x0, 0x0, 0x0, 0x0, 0x0, 0x0, 0x0, 0x0, 0x0, 0x0, 0x0, 0x0, 0x0, 0x0, 0x0, 0x0, 0x0, 0x0, 0x0, 0x0, 0x0, 0x0, 0x0, 0x0, 0x0, 0x0, 0x0, 0x0, 0x0, 0x0, 0x0, 0x0, 0x0, 0x0, 0x0, 0x0, 0x0, 0x0, 0x0, 0x0, 0x0, 0x0, 0x10892, 0x100A0000, 0x700000, 0x10001, 0x8000800, 0x100020, 0x0, 0x0, 0x800000, 0x80400, 0x8500000, 0x41000, 0x29000080, 0x2040011, 0xA0000802, 0x400, 0x40800, 0x400, 0x8400000, 0x20800440, 0x20040980, 0x80020041, 0x60020800, 0x20000, 0x80000400, 0x10020000, 0x400408, 0x40800, 0x800800, 0x86000100, 0x80809002, 0xA0400, 0x40000088, 0x40, 0x4100000, 0x801, 0x20810000, 0x2140100, 0xA1221000, 0x0, 0x20001, 0x40, 0x8601020, 0x20000441, 0x8000000, 0x42004100, 0x20000, 0x10001400, 0x82, 0x100, 0xA0200008, 0x40040, 0x2C00000, 0x40020020, 0x8800, 0xA0400, 0x40000008, 0x1102, 0xC000400, 0x8821, 0xC00000, 0xC0040B01, 0x200800, 0x70500, 0x1, 0x100, 0x84000000, 0x5003, 0x0, 0x2004000, 0x48008800, 0x700, 0x0, 0x0, 0x0, 0x0, 0x0, 0x0, 0x0, 0x0, 0x0, 0x0, 0x0, 0x0, 0x0, 0x0, 0x0, 0x0, 0x0, 0x0, 0x0, 0x0, 0x0, 0x0, 0x0, 0x0, 0x0, 0x0, 0x0, 0x0, 0x0, 0x0, 0x0, 0x0, 0x0, 0x0, 0x0, 0x0, 0x0, 0x0, 0x0, 0x0, 0x0, 0x0, 0x0, 0x0, 0x0, 0x0, 0x0, 0x0, 0x0, 0x0, 0x0, 0x0, 0x0, 0x0, 0x0, 0x0, 0x0, 0x0, 0x0, 0x0, 0x0, 0x0, 0x0, 0x0, 0x0, 0x0, 0x0, 0x0, 0x0, 0x0, 0x0, 0x0, 0x80440000, 0xA200000, 0x8A0, 0x10000010, 0x10102, 0x0, 0x2000, 0x80850, 0x2400000, 0xA000000, 0x200000E0, 0x20208410, 0x80000000, 0x400000, 0x8040, 0x80810, 0x8200000B, 0xA000000, 0x20400880, 0x10301000, 0x20000802, 0x4020000, 0x24000001, 0x8000000, 0x22000000, 0x40000000, 0x900, 0x1010, 0x80000000, 0x80680000, 0x1240040, 0x40000830, 0x0, 0x80000000, 0x100, 0x11010010, 0x80000000, 0x0, 0x0, 0x800A10, 0x501, 0x80000, 0x20000800, 0x209810, 0x102, 0x4620000, 0x8000000, 0x20010, 0x580, 0xC0001100, 0x84, 0x20000010, 0x0, 0x80000800, 0x200000, 0x141010, 0xA0400400, 0x80000100, 0x880, 0x10, 0x0, 0x380000, 0x20000000, 0x0, 0x10000480, 0x80000100, 0x800, 0x20200022, 0x800, 0x4302000, 0x24200040, 0x100040, 0x20002040, 0x48200000, 0x8000040, 0x200042, 0x2, 0x10100, 0x0, 0x0, 0x20100008, 0x4000, 0x108, 0xC000, 0x800000, 0x0, 0x280000, 0x10011110, 0x20100440, 0x8004000, 0x20000100, 0x108040, 0x400080, 0x4000100, 0x1020000, 0x10, 0x2148, 0x80, 0x4000, 0x20200810, 0x4000000, 0x10, 0x100001, 0x1210, 0x808040, 0x40000000, 0x20000020, 0x20C080, 0x0, 0x280000, 0x220000, 0x10, 0x8148, 0x4000, 0x20000004, 0x108000, 0x0, 0x84002004, 0x20040, 0x4, 0x141, 0x1004020, 0x488, 0x20208830, 0x0, 0x80000, 0x240, 0x14800, 0x21000340, 0x40000010, 0x0, 0x20200080, 0x880, 0xC0002010, 0x40, 0x0, 0x8780, 0x2001011, 0x400040, 0x202400A0, 0x3C00080, 0x80402000, 0x2040, 0x4010, 0x20812000, 0x83004000, 0xA8000008, 0x20011220, 0x8000800, 0x40, 0x4000004, 0x20024000, 0x32630, 0x6000021, 0x8000004, 0x10110020, 0x80000000, 0x242050, 0x0, 0x50404, 0x80230030, 0x4004400, 0x10000004, 0x1041020, 0x85000000, 0x4002010, 0x40028040, 0x8000004, 0x20002B, 0x80004001, 0x8000000, 0x21A10220, 0x20400000, 0x40, 0x4800000, 0x8010020, 0x409, 0x40000100, 0x10000000, 0x20, 0x4010000, 0x800, 0x80900004, 0x84080, 0x10000001, 0x10004020, 0x8, 0x21811000, 0x2010080, 0x62010, 0x8004, 0x30004, 0x200008, 0x4005020, 0x4004000, 0x20810000, 0x1000000, 0x2400, 0x80100000, 0x8090100, 0x12022000, 0x1020, 0x4000, 0x250000, 0x810000, 0x4000400, 0x80800000, 0x20000, 0x60C02808, 0x1000, 0x4008, 0x20800022, 0x1000000, 0x40C10, 0x40802000, 0x40000, 0x10000000, 0x200010, 0x0, 0x140000, 0x0, 0x40, 0x0, 0x441000, 0x10100002, 0x1000, 0x40, 0x80, 0x80000000, 0x0, 0x1000000, 0x841000, 0x2400401, 0x80000200, 0x10000008, 0x344020, 0x1000000, 0x240, 0x40, 0x20141300, 0x40000010, 0x4011, 0x0, 0x10240000, 0x80000000, 0x240, 0x40002080, 0x10050, 0x622, 0x81000000, 0x8, 0x10, 0x2, 0x20000, 0x20001000, 0x10814, 0x800020, 0x1202000, 0x48, 0x104820, 0x21000800, 0x80022144, 0x40001040, 0x4, 0x2100080, 0x204010, 0x10000440, 0x30000000, 0x80000000, 0x80000040, 0x2402001, 0x80401050, 0x20800000, 0x11000000, 0x8, 0x100000, 0x902, 0x80020020, 0x40400000, 0x80441010, 0x208004A0, 0x1204000, 0x0, 0x20100200, 0x0, 0x4840, 0x100041, 0x805210, 0x8414, 0x0, 0x0, 0x80A00C80, 0x2000100, 0x480104, 0x0, 0x20C00C00, 0x500014, 0x120000, 0x404, 0x80, 0x2000000, 0x10020, 0x102002, 0x10400400, 0x500004, 0x20100, 0x4000000, 0x80, 0x80, 0x20, 0x80300000, 0x10101C00, 0x100002, 0x0, 0xC004400, 0x200000, 0x22000000, 0x80040, 0x40200000, 0xE0480000, 0x80400010, 0x4000100, 0x0, 0x400000, 0x23000000, 0x40010001, 0xC0600000, 0x480820, 0x0, 0x84100000, 0x80000000, 0x400200, 0xA0000000, 0x80010021, 0x40202040, 0x90000020, 0x20100006, 0x4000210, 0x8000040, 0xC00200, 0x800, 0x40002004, 0x2A0002, 0x60400460, 0x70000000, 0x4000002, 0x100, 0x440000, 0x21000000, 0x400, 0x280004, 0x20001120, 0x0, 0x10000, 0x100, 0xC40200, 0x80, 0x10020, 0x88A80000, 0x70800000, 0x1018012, 0x104000, 0x820000C, 0x20040200, 0x8000000, 0x110000, 0x4220802, 0x80010020, 0x181A800, 0x100520, 0x2C200404, 0x800, 0x800000, 0x100000, 0x40000000, 0x80000420, 0x1881C, 0x100400, 0x8400404, 0x20001001, 0x800000, 0x2012005, 0x40000200, 0x20140, 0x208000, 0x0, 0x4000044, 0x800, 0x2040000, 0x2000, 0x800080, 0x10040, 0x200004, 0x10000, 0x8000004, 0x20008000, 0x2000000, 0x300000, 0x81, 0x0, 0x4, 0x112040, 0x8500000, 0x20000040, 0x80800000, 0x300000, 0x40000200, 0x80000110, 0x208240, 0x4000200, 0x20000104, 0x80000210, 0x800000, 0x10, 0x80180000, 0x28020000, 0x60000244, 0x310, 0x80000104, 0x140000, 0x0, 0x4, 0x80, 0x68030010, 0x202200, 0x200100, 0x80004000, 0x0, 0x80880000, 0x10, 0x0, 0x80800000, 0x0, 0x0, 0x0, 0x0, 0x0, 0x0, 0x0, 0x0, 0x0, 0x0, 0x0, 0x0, 0x0, 0x0, 0x0, 0x0, 0x0, 0x0, 0x0, 0x0, 0x0, 0x0, 0x0, 0x0, 0x0, 0x0, 0x0, 0x0, 0x0, 0x0, 0x0, 0x0, 0x0, 0x0, 0x0, 0x0, 0x0, 0x0, 0x0, 0x0, 0x0, 0x0, 0x0, 0x0, 0x0, 0x0, 0x0, 0x0, 0x0, 0x0, 0x0, 0x0, 0x0, 0x0, 0x0, 0x0, 0x0, 0x0, 0x0, 0x0, 0x0, 0x0, 0x0, 0x0, 0x0, 0x0, 0x0, 0x0, 0x0, 0x0, 0x0, 0x0, 0x400004, 0x80003001, 0x10200800, 0x208411, 0x80000, 0x2080201, 0x80001, 0x10100084, 0x80, 0x43091, 0xC0, 0x1208000, 0x2D880000, 0x200600, 0x80, 0x10000004, 0x40000200, 0x80003000, 0x200020, 0x200000, 0x5440000, 0x200614, 0x2100000, 0x10000000, 0x1000000, 0x0, 0x0, 0x200010, 0x40000, 0x4020000, 0x81081, 0x0, 0x50001, 0x21C0000, 0x100000, 0x200032, 0x21800000, 0x40300, 0x40800200, 0x10040004, 0x448200, 0x181021, 0x0, 0x200042, 0x840000, 0x80100200, 0x100080, 0x0, 0x8000, 0xE1021, 0x20000000, 0x80208071, 0x4040800, 0x4000210, 0x2100200, 0x114, 0x400200, 0xC1001, 0x0, 0x80200CC0, 0xC040000, 0x2000010, 0x0, 0x100, 0xA1, 0xC0081, 0x60, 0xC02, 0x18C0000, 0x4000010, 0x4000205, 0x10000004, 0x80020289, 0x800000A2, 0x800, 0xC40000, 0x2000000, 0x4080200, 0x2800, 0x20405000, 0x40230000, 0x41080002, 0x1C84, 0xC00000, 0x0, 0x2C0010, 0x880800, 0x40120000, 0x80120088, 0xC1080220, 0x400, 0x1C10010, 0x0, 0x210210, 0x60802, 0x184000, 0x43000482, 0x1, 0x400, 0x1000001, 0x80002, 0x242020, 0x2, 0x80020, 0x80802240, 0x3000400, 0x400, 0x10000001, 0x1000000, 0x400020, 0x80000800, 0x18100000, 0x282008D, 0x40000080, 0x8201080, 0x1800410, 0x10100, 0x40460, 0x1001000, 0x100000, 0x4080A002, 0x4040211, 0x4000000, 0x200200, 0x1000000, 0x50000, 0x4201000, 0x10000400, 0xA02008, 0x52000000, 0x88000000, 0x0, 0x80100, 0x40800, 0x44401001, 0x30800000, 0x64, 0x40000001, 0x8, 0x20000000, 0x3040100, 0x20000, 0x43000, 0x10000000, 0x920004, 0x8080000, 0x201800, 0x10802, 0x8840800, 0x42180000, 0x100800, 0x20, 0x20, 0x82000, 0x20, 0xD200, 0x40800, 0x80000, 0x800A0800, 0x800, 0x20200, 0x0, 0x20, 0x9010, 0x0, 0x2100000, 0x2C0A0000, 0x8040000, 0x200, 0x18082000, 0x204008A0, 0x30005000, 0xA000100, 0x80180000, 0x40, 0x50000810, 0x100000, 0x80A0000, 0x100, 0x20004000, 0x40000, 0x100040, 0x4000040, 0x80010, 0x0, 0x0, 0x20000020, 0x401800, 0x2040000, 0x80080000, 0x2200800, 0x480A0010, 0x201, 0x0, 0x0, 0x3000C000, 0x40900, 0x23A0000, 0x8000000, 0x410, 0x100, 0x2, 0x200009A0, 0x8000, 0x8000100, 0x180004, 0x4260000, 0x810, 0x142, 0x40000, 0x1000, 0x401000, 0x2, 0x40180000, 0x24200000, 0x48140040, 0x40002000, 0x20200, 0x800, 0x14000, 0x90000, 0x20800, 0x2001004, 0x400080, 0x0, 0x1, 0x0, 0x410010, 0x0, 0x80020800, 0x800000, 0x0, 0x20400120, 0x40001, 0x4004004, 0x80400000, 0x81400000, 0x80240100, 0x40800000, 0x80, 0x5010A100, 0x4130280, 0x4000000, 0x80414412, 0x0, 0x2A01, 0x88280, 0x20000080, 0x20820010, 0x0, 0x20, 0x20, 0x400800, 0x400, 0x80, 0xC00000, 0x30120120, 0x2000000, 0x0, 0x1, 0x82480800, 0xC0000800, 0x800080, 0x800, 0x1030A000, 0x84010290, 0x14000800, 0x80440000, 0x4000000, 0x4002000, 0x8288000, 0x200310A4, 0x40002000, 0x84000080, 0x4000000, 0x80000401, 0x0, 0x40000, 0x80000, 0x70000, 0x880, 0x90000000, 0x980, 0x402, 0x480000, 0x0, 0x20000001, 0x1800, 0x0, 0x0, 0x0, 0x0, 0x0, 0x0, 0x0, 0x0, 0x0, 0x0, 0x0, 0x0, 0x0, 0x0, 0x0, 0x0, 0x0, 0x0, 0x0, 0x0, 0x0, 0x0, 0x0, 0x0, 0x0, 0x0, 0x0, 0x0, 0x0, 0x0, 0x0, 0x0, 0x0, 0x0, 0x0, 0x0, 0x0, 0x0, 0x0, 0x0, 0x0, 0x0, 0x0, 0x0, 0x0, 0x0, 0x0, 0x0, 0x0, 0x0, 0x0, 0x0, 0x0, 0x0, 0x0, 0x0, 0x0, 0x0, 0x0, 0x0, 0x0, 0x0, 0x0, 0x0, 0x0, 0x0, 0x0, 0x0, 0x0, 0x0, 0x0, 0x0, 0x40810C00, 0x10000001, 0x88100400, 0x1240, 0x2000002, 0x20, 0x0, 0x10420104, 0x10400, 0x8183190, 0xA8100000, 0x1202, 0x40000, 0x4821, 0x88000000, 0x480120, 0xC1008414, 0x10000001, 0x80104540, 0x800, 0x4000000, 0x20, 0x40080, 0x10800000, 0x800100, 0x99000020, 0x200480, 0x8020, 0x2, 0x4, 0x948000, 0x18000400, 0x40300008, 0x9D010002, 0xA0000400, 0x0, 0x0, 0x0, 0x20000, 0x18000000, 0x20800, 0x58004002, 0x0, 0x400040, 0xC40000, 0xC00D0000, 0x40000, 0x40800000, 0x40810200, 0xC9010000, 0x1C00, 0x20000040, 0x20410000, 0x2080000, 0xC0, 0x18000490, 0xA10880, 0x88002020, 0x401004, 0x408040, 0x40000, 0x2600010, 0x0, 0x40010000, 0x2110800, 0x88001502, 0x401000, 0x401040, 0x2000800, 0x86380000, 0x40200040, 0x10040010, 0x0, 0x0, 0x0, 0x0, 0x0, 0x0, 0x0, 0x0, 0x0, 0x0, 0x0, 0x0, 0x0, 0x0, 0x0, 0x0, 0x0, 0x0, 0x0, 0x0, 0x0, 0x0, 0x0, 0x0, 0x0, 0x0, 0x0, 0x0, 0x0, 0x0, 0x0, 0x0, 0x0, 0x0, 0x0, 0x0, 0x0, 0x0, 0x0, 0x0, 0x0, 0x0, 0x0, 0x0, 0x0, 0x0, 0x0, 0x0, 0x0, 0x0, 0x0, 0x0, 0x0, 0x0, 0x0, 0x0, 0x0, 0x0, 0x0, 0x0, 0x0, 0x0, 0x0, 0x0, 0x0, 0x0, 0x0, 0x0, 0x0, 0x0, 0x0, 0x0, 0x2104, 0x1001142, 0x8400080, 0x2, 0x24480000, 0x4000, 0x2000880, 0x20800, 0x2404, 0x84140, 0x8200000, 0x0, 0x84040000, 0x2004200, 0x8001080, 0x0, 0x40002700, 0x40C0, 0x1040C0, 0x200403, 0xC800000, 0x102700, 0xC001000, 0x200A0960, 0xE0000040, 0x1080002, 0x100, 0x1, 0x80000000, 0x220001, 0x1800000, 0x90800, 0x90020000, 0x1000020, 0x400000, 0x400000, 0x80, 0x40200000, 0x60080, 0x40000000, 0x2000, 0x40004042, 0x88400080, 0x1, 0x102, 0x360000, 0x88002080, 0x0, 0x72000000, 0x0, 0x0, 0x410002, 0x0, 0x40010000, 0x40, 0x80000, 0x2100800, 0xC0000180, 0x0, 0x1, 0x0, 0x240A00, 0x1022000, 0x40000000, 0x200, 0x40001100, 0x400088, 0x80000000, 0x40000, 0x80044000, 0x80800, 0x40000100, 0x20008000, 0x0, 0x0, 0x80008880, 0x5400080, 0xC0200040, 0x80000000, 0x820, 0x20400000, 0x1000, 0x0, 0x200C00, 0x400000, 0x0, 0x8200, 0x64, 0x141, 0x8000100, 0x140, 0x300800, 0x100, 0x40020920, 0x280001, 0x10040020, 0x0, 0x100300, 0x4104040, 0x80, 0x1080180, 0x0, 0x480000, 0x400800, 0x400010, 0x24000, 0x0, 0xA00000, 0x8000100, 0x404020, 0x1200, 0x400040, 0x100, 0x180, 0x10000040, 0x200000, 0x88000180, 0x160, 0x201214, 0x400080, 0x10000140, 0x10, 0x100040, 0x80200801, 0x1880180, 0x404100, 0x20080, 0x1D44, 0xA000, 0x220080, 0x10000060, 0xC00, 0x180, 0x940, 0x20081004, 0x40401C00, 0x100412, 0x4240, 0x40, 0x80000881, 0x80, 0x40000000, 0x8A01001, 0x40000800, 0x50048004, 0x40220080, 0x8000020, 0x200021, 0x20050000, 0x40020000, 0x42401000, 0x10000, 0x50010106, 0x1080000, 0x0, 0x80600060, 0x10000, 0x20004, 0x0, 0x180, 0x11008220, 0x96000, 0x408, 0x100060, 0x800, 0x20000, 0x1200, 0x20820044, 0x12400004, 0xCA000440, 0x1400, 0x1010040, 0x80000180, 0x40110100, 0x20800040, 0x200, 0x12100004, 0x200210, 0x580, 0x802, 0x0, 0x400010, 0x2040, 0x880, 0x10800000, 0x10400, 0x80000400, 0x204080, 0x4000000, 0x40000200, 0x48008080, 0xA00, 0x90430080, 0x40040122, 0x20001000, 0x40020, 0x80800880, 0xC0380520, 0x4222000, 0x504000, 0x80000000, 0x132, 0x20001100, 0x850600, 0xA0400080, 0x40080020, 0x44200044, 0x105200, 0x110082, 0x42040150, 0x20001400, 0x20840600, 0xA0000000, 0x402020, 0x24A28000, 0x20004800, 0x0, 0x0, 0x0, 0x0, 0x0, 0x0, 0x0, 0x0, 0x0, 0x0, 0x0, 0x0, 0x0, 0x0, 0x0, 0x0, 0x0, 0x0, 0x0, 0x0, 0x0, 0x0, 0x0, 0x0, 0x0, 0x0, 0x0, 0x0, 0x0, 0x0, 0x0, 0x0, 0x0, 0x0, 0x0, 0x0, 0x0, 0x0, 0x0, 0x0, 0x0, 0x0, 0x0, 0x0, 0x0, 0x0, 0x0, 0x0, 0x0, 0x0, 0x0, 0x0, 0x0, 0x0, 0x0, 0x0, 0x0, 0x0, 0x0, 0x0, 0x0, 0x0, 0x0, 0x0, 0x0, 0x0, 0x0, 0x0, 0x0, 0x0, 0x0, 0x0, 0x0, 0x0, 0x0, 0x0, 0x0, 0x0, 0x0, 0x0, 0x0, 0x0, 0x0, 0x0, 0x0, 0x0, 0x0, 0x0, 0x0, 0x0, 0x0, 0x0, 0x0, 0x0, 0x0, 0x0, 0x0, 0x0, 0x0, 0x0, 0x0, 0x0, 0x0, 0x0, 0x0, 0x0, 0x0, 0x0, 0x0, 0x0, 0x0, 0x0, 0x0, 0x0, 0x0, 0x0, 0x0, 0x0, 0x0, 0x0, 0x0, 0x0, 0x0, 0x0, 0x0, 0x0, 0x0, 0x0, 0x0, 0x0, 0x0, 0x0, 0x0, 0x0, 0x0, 0x0, 0x0, 0x0, 0x0, 0x0, 0x0, 0x0, 0x0, 0x0, 0x0, 0x0, 0x0, 0x0, 0x0, 0x0, 0x0, 0x0, 0x0, 0x0, 0x0, 0x0, 0x0, 0x0, 0x0, 0x0, 0x0, 0x0, 0x0, 0x0, 0x0, 0x0, 0x0, 0x0, 0x0, 0x0, 0x0, 0x0, 0x0, 0x0, 0x0, 0x0, 0x0, 0x0, 0x0, 0x0, 0x0, 0x0, 0x0, 0x0, 0x0, 0x0, 0x0, 0x0, 0x0, 0x0, 0x0, 0x0, 0x0, 0x0, 0x0, 0x0, 0x0, 0x0, 0x0, 0x0, 0x0, 0x0, 0x0, 0x0, 0x0, 0x0, 0x0, 0x0, 0x0, 0x0, 0x0, 0x0, 0x0, 0x0, 0x0, 0x0, 0x82, 0x120000, 0x300800, 0x80001841, 0x2080000, 0x2004801, 0xA9000800, 0x4, 0xA80, 0x0, 0x200020, 0x1, 0x3000100, 0x2002000, 0x20042800, 0xA0000004, 0x20000800, 0x44000000, 0x20, 0x0, 0x4010000, 0x2860, 0x8000800, 0x80, 0x1108280, 0x4180300, 0xC000800, 0x80000400, 0x21000000, 0x2000200, 0x81048800, 0x10004, 0x100000, 0x100010, 0x100000, 0x4000, 0x8000000, 0x82000000, 0x140000, 0x0, 0x30100800, 0x82090400, 0x420, 0x8000, 0x8000100, 0x10, 0x0, 0x10011000, 0x60102490, 0x4091000, 0x4000820, 0x20200000, 0x10000, 0x0, 0xA0008002, 0x24004, 0x60000000, 0x80440, 0x0, 0x200000, 0x80000100, 0x0, 0xA1000800, 0x41410, 0x100100, 0x4280400, 0xA0, 0x4010, 0x1010000, 0x0, 0x100800, 0x40034, 0x20248000, 0x80180220, 0x10000000, 0x10450000, 0x0, 0x2800, 0x81108000, 0x80010080, 0x20A00001, 0x80002000, 0x80000000, 0x400, 0x40000, 0x2000000, 0x300000, 0x40000800, 0xC0800009, 0x200040, 0x24200000, 0x10000C01, 0x88040800, 0x80000000, 0x4A020000, 0x210, 0x22040000, 0x800C40A0, 0x800, 0x450000, 0x0, 0x24001, 0x80100040, 0xC20000, 0x8, 0x80000000, 0x94000400, 0x1000400, 0x5000000, 0x2000010, 0x2000000, 0x60000080, 0x40000884, 0x0, 0xA0000000, 0x10010002, 0x0, 0x40522104, 0x0, 0x210, 0x10900801, 0xC2010220, 0x0, 0x4410A0, 0x40000, 0x4A05, 0xC01000C0, 0x80804800, 0x2840800, 0x100, 0x104400, 0x10C00, 0x80040000, 0x40, 0x0, 0x8000910, 0x40D80, 0x0, 0x20004000, 0x30800C40, 0x80000000, 0xC0120000, 0x40080882, 0x18080800, 0x800044, 0x2180, 0x4880, 0x200, 0x84880000, 0x4180000, 0x401081, 0x0, 0x0, 0x100, 0x9C0, 0x1000000, 0x84000000, 0x4002000, 0x8440081, 0x20001004, 0x40008000, 0xC0300, 0x10000004, 0x0, 0x80840000, 0x102010, 0x4800000, 0x20540100, 0xC, 0x42000, 0x120, 0x410, 0xC040000, 0x4000000, 0x4420200, 0x20050100, 0x40000000, 0x10000000, 0x0, 0x200000, 0x4C0000, 0x4020001, 0x0, 0x40010004, 0x210, 0x8000000, 0x80000000, 0x840, 0x20080000, 0x4000001, 0x4800000, 0x68100100, 0x40000100, 0x25080, 0x0, 0x80000000, 0x0, 0x86800, 0x4400000, 0x40104, 0x800804, 0x1210A0, 0x80100120, 0x8000, 0x0, 0x60E0000, 0x6000000, 0x40050100, 0x1028900, 0x900A2081, 0x160, 0x10000000, 0x80080002, 0x4020400, 0x80000001, 0x70000124, 0xA0000181, 0x240, 0x104000, 0x20, 0x1000980, 0x20100, 0xA9020041, 0x40800000, 0x800005A0, 0x0, 0x4000000, 0x40000, 0x80, 0x20001, 0xC0200044, 0x210, 0x80800400, 0x2010000, 0x4400000, 0x10040400, 0x800, 0x20100, 0x8000000, 0x88000020, 0x800001C1, 0x4020, 0x90600000, 0x10000, 0x82000080, 0x40000044, 0x80001840, 0x0, 0x400E0, 0x0, 0x0, 0x0, 0x3400000, 0x2020440, 0x1220000, 0x10, 0x543, 0x400, 0x88000000, 0x11000000, 0x50080, 0x80020540, 0x0, 0x8000220, 0x181, 0x84000420, 0x80304000, 0x40, 0x80000080, 0x440, 0x20000, 0x0, 0x80800441, 0x40000000, 0x4080, 0x20010021, 0x8A040100, 0x80200514, 0x4000000, 0x500, 0x2000020, 0x40000100, 0x88100080, 0x1808241, 0x40980, 0x0, 0x40000800, 0x8004000, 0x202008, 0x12062040, 0x500064, 0x1004040, 0x2, 0x4820, 0x48000000, 0x20004, 0x1008400, 0x4000020, 0x24100000, 0x2, 0x0, 0x4040, 0x0, 0xC0420104, 0x40C10, 0x4080040, 0xC000044, 0x1000000, 0x4010002, 0x2004800, 0x403000, 0x80820804, 0x210022, 0x2001000, 0x400004, 0x804001, 0x800000, 0x24000, 0x1000000, 0x90000, 0x200002, 0x100000, 0x8200000, 0x0, 0x5040000, 0x40, 0x3040082, 0x880044, 0x10000, 0x80490, 0x400000, 0x1000000, 0x0, 0x4840, 0x1800, 0x80000500, 0x12100008, 0x80, 0x20400004, 0x5401, 0x2, 0x4200, 0x2, 0xA0000, 0x100200, 0x180, 0x400020, 0x404000, 0x4400000, 0x0, 0x8001082, 0x20000000, 0x858000, 0x100, 0x8400800, 0x4803, 0x4000000, 0x2000200, 0x80, 0x80000420, 0x0, 0x0, 0x0, 0x0, 0x0, 0x0, 0x0, 0x0, 0x0, 0x0, 0x0, 0x0, 0x0, 0x0, 0x0, 0x0, 0x0, 0x0, 0x0, 0x0, 0x0, 0x0, 0x0, 0x0, 0x0, 0x0, 0x0, 0x0, 0x0, 0x0, 0x0, 0x0, 0x0, 0x0, 0x0, 0x0, 0x0, 0x0, 0x0, 0x0, 0x0, 0x0, 0x0, 0x0, 0x0, 0x0, 0x0, 0x0, 0x0, 0x0, 0x0, 0x0, 0x0, 0x0, 0x0, 0x0, 0x0, 0x0, 0x0, 0x0, 0x0, 0x0, 0x0, 0x0, 0x0, 0x0, 0x0, 0x0, 0x0, 0x0, 0x0, 0x0, 0x0, 0x0, 0x0, 0x0, 0x0, 0x0, 0x0, 0x0, 0x0, 0x0, 0x0, 0x0, 0x0, 0x0, 0x0, 0x0, 0x0, 0x0, 0x0, 0x0, 0x0, 0x0, 0x0, 0x0, 0x0, 0x0, 0x0, 0x0, 0x0, 0x0, 0x0, 0x0, 0x0, 0x0, 0x0, 0x0, 0x0, 0x0, 0x0, 0x0, 0x0, 0x0, 0x0, 0x0, 0x0, 0x0, 0x0, 0x0, 0x0, 0x0, 0x0, 0x0, 0x0, 0x0, 0x0, 0x0, 0x0, 0x0, 0x0, 0x0, 0x0, 0x0, 0x0, 0x0, 0x0, 0x0, 0x0, 0x0, 0x0, 0x0, 0x0, 0x0, 0x100010, 0x0, 0x400000, 0x820, 0x20000000, 0x40000104, 0x4000000, 0x10000100, 0x40100402, 0xC010400, 0x4000000, 0x8000, 0x4040000, 0x6400804, 0x20000, 0x10000010, 0x2100808, 0x4006000, 0x14000400, 0x10000000, 0x1400000, 0x420805, 0x40020000, 0x10101000, 0x800000, 0x1081, 0x0, 0x14800, 0x6000080, 0x40000404, 0x2, 0x1000, 0x20100400, 0x0, 0x80000000, 0x4800, 0x0, 0x400900, 0x40020080, 0x400, 0x0, 0x0, 0x0, 0x201090, 0x10C0000, 0xC0000804, 0x201, 0x10040500, 0x40040001, 0x4001, 0xC00, 0x201840, 0x28000000, 0x2804, 0x100001, 0x190, 0x60400301, 0x4386002, 0x100800, 0x80400060, 0x800000, 0x805, 0x10, 0x10000510, 0x70000000, 0x8210602, 0x20004000, 0x201880, 0x80102, 0x20805, 0x40000010, 0x10, 0x2C04, 0x200010, 0x80400000, 0x20800000, 0x800000, 0x110, 0x0, 0x1040, 0x2900, 0x42, 0x8400000, 0x4200, 0x2800000, 0x40404, 0x2003000, 0x80004, 0x42800, 0x100000, 0x20000000, 0x240, 0x10000, 0x0, 0x2503000, 0x844, 0x102800, 0x80000, 0x140, 0x80008000, 0x20040000, 0xA0004, 0x40C00000, 0x14140, 0x340104, 0x8000000, 0x401120, 0x40210, 0x20000000, 0x4000, 0x400000, 0x980000, 0x2100000, 0x11020000, 0x20400020, 0x0, 0x800000, 0x80000, 0x40000, 0x60044, 0x20100300, 0x80290100, 0x1140, 0x10200012, 0x4000000, 0x82484020, 0x86400C2, 0x50080850, 0x1100000, 0x9000000, 0x20001980, 0x90, 0x20000800, 0xA0020, 0xC200042, 0x50C00050, 0x2100004, 0x1081100, 0x1140, 0x400080, 0x800, 0x4100000, 0x200002, 0x50100050, 0x0, 0x0, 0x0, 0x0, 0x0, 0x0, 0x0, 0x0, 0x0, 0x0, 0x0, 0x0, 0x0, 0x0, 0x0, 0x0, 0x0, 0x0, 0x0, 0x0, 0x0, 0x0, 0x0, 0x0, 0x0, 0x0, 0x0, 0x0, 0x0, 0x0, 0x0, 0x0, 0x0, 0x0, 0x0, 0x0, 0x0, 0x0, 0x0, 0x0, 0x0, 0x0, 0x0, 0x0, 0x0, 0x0, 0x0, 0x0, 0x0, 0x0, 0x0, 0x0, 0x0, 0x0, 0x0, 0x0, 0x0, 0x0, 0x0, 0x0, 0x0, 0x0, 0x0, 0x0, 0x0, 0x0, 0x0, 0x0, 0x0, 0x0, 0x0, 0x0, 0x40F08004, 0x40001010, 0x84, 0x10, 0x4000000, 0x80214, 0x80400000, 0x801800, 0x1920A00, 0x48000082, 0x180, 0x8090, 0x84000000, 0x340000, 0x2020800, 0xD80000, 0x1120200, 0x103, 0x20, 0x80000042, 0x5010000, 0x300210, 0x2000800, 0xD01180, 0x120204, 0x40001040, 0x40, 0x200010, 0x4080000, 0x100000, 0xA1080,